{
  "version": "1.0",
  "truncation": null,
  "padding": null,
  "added_tokens": [
    {
      "id": 0,
      "content": "[UNK]",
      "single_word": false,
      "lstrip": false,
      "rstrip": false,
      "normalized": false,
      "special": true
    },
    {
      "id": 1,
      "content": "[CLS]",
      "single_word": false,
      "lstrip": false,
      "rstrip": false,
      "normalized": false,
      "special": true
    },
    {
      "id": 2,
      "content": "[SEP]",
      "single_word": false,
      "lstrip": false,
      "rstrip": false,
      "normalized": false,
      "special": true
    },
    {
      "id": 3,
      "content": "[PAD]",
      "single_word": false,
      "lstrip": false,
      "rstrip": false,
      "normalized": false,
      "special": true
    },
    {
      "id": 4,
      "content": "[MASK]",
      "single_word": false,
      "lstrip": false,
      "rstrip": false,
      "normalized": false,
      "special": true
    }
  ],
  "normalizer": {
    "type": "Sequence",
    "normalizers": [
      {
        "type": "NFD"
      },
      {
        "type": "Lowercase"
      },
      {
        "type": "StripAccents"
      }
    ]
  },
  "pre_tokenizer": {
    "type": "ByteLevel",
    "add_prefix_space": true,
    "trim_offsets": true,
    "use_regex": true
  },
  "post_processor": {
    "type": "ByteLevel",
    "add_prefix_space": true,
    "trim_offsets": true,
    "use_regex": true
  },
  "decoder": {
    "type": "ByteLevel",
    "add_prefix_space": true,
    "trim_offsets": true,
    "use_regex": true
  },
  "model": {
    "type": "BPE",
    "dropout": null,
    "unk_token": "[UNK]",
    "continuing_subword_prefix": null,
    "end_of_word_suffix": null,
    "fuse_unk": false,
    "byte_fallback": false,
    "ignore_merges": false,
    "vocab": {
      "[UNK]": 0,
      "[CLS]": 1,
      "[SEP]": 2,
      "[PAD]": 3,
      "[MASK]": 4,
      "!": 5,
      "(": 6,
      ")": 7,
      "*": 8,
      ",": 9,
      "-": 10,
      ".": 11,
      "/": 12,
      "0": 13,
      "1": 14,
      "2": 15,
      "3": 16,
      "4": 17,
      "5": 18,
      "6": 19,
      "7": 20,
      "8": 21,
      "9": 22,
      ":": 23,
      ";": 24,
      "<": 25,
      "=": 26,
      ">": 27,
      "?": 28,
      "[": 29,
      "]": 30,
      "_": 31,
      "a": 32,
      "b": 33,
      "c": 34,
      "d": 35,
      "e": 36,
      "f": 37,
      "g": 38,
      "h": 39,
      "i": 40,
      "j": 41,
      "k": 42,
      "l": 43,
      "m": 44,
      "n": 45,
      "o": 46,
      "p": 47,
      "q": 48,
      "r": 49,
      "s": 50,
      "t": 51,
      "u": 52,
      "v": 53,
      "w": 54,
      "x": 55,
      "y": 56,
      "z": 57,
      "¦": 58,
      "«": 59,
      "°": 60,
      "±": 61,
      "²": 62,
      "³": 63,
      "´": 64,
      "µ": 65,
      "¶": 66,
      "·": 67,
      "¸": 68,
      "º": 69,
      "»": 70,
      "¼": 71,
      "½": 72,
      "¾": 73,
      "¿": 74,
      "Â": 75,
      "Ã": 76,
      "Å": 77,
      "Ð": 78,
      "Ñ": 79,
      "â": 80,
      "Ċ": 81,
      "č": 82,
      "Ġ": 83,
      "Ģ": 84,
      "ģ": 85,
      "Ĥ": 86,
      "ĥ": 87,
      "Ħ": 88,
      "ħ": 89,
      "Ĩ": 90,
      "ĩ": 91,
      "Ī": 92,
      "ī": 93,
      "Ĭ": 94,
      "ĭ": 95,
      "Į": 96,
      "į": 97,
      "İ": 98,
      "ı": 99,
      "ĳ": 100,
      "ĵ": 101,
      "Ķ": 102,
      "ĸ": 103,
      "Ļ": 104,
      "ľ": 105,
      "ŀ": 106,
      "Ł": 107,
      "ł": 108,
      "ĠÐ": 109,
      "Ð¾": 110,
      "Ð°": 111,
      "Ðµ": 112,
      "Ð¸": 113,
      "ÑĤ": 114,
      "Ñģ": 115,
      "Ð»": 116,
      "Ð½": 117,
      "ÑĢ": 118,
      "Ð¾Ð": 119,
      "Ñĥ": 120,
      "Ð°Ð": 121,
      "Ñı": 122,
      "ÑĮ": 123,
      "Ñĭ": 124,
      "ĠÑģ": 125,
      "ĠÐ¿": 126,
      "ĠÐ½": 127,
      "ĠÐ²": 128,
      "ÐµÐ": 129,
      "Ðº": 130,
      "Ñĩ": 131,
      "Ð²": 132,
      "ĠÐ¾": 133,
      "ĠÐ¸": 134,
      "ÑĤÐ¾": 135,
      "Ð´": 136,
      "ĠÐº": 137,
      "Ð¼": 138,
      "Ð°Ð»": 139,
      "ÑģÑĤ": 140,
      "ÑĪ": 141,
      "Ð¾Ð²": 142,
      "ĠÐ´": 143,
      "ÐµÐ½": 144,
      "Ñħ": 145,
      "³Ð¾": 146,
      "ĠÐ±": 147,
      "âĢ": 148,
      "ÐµÑĢ": 149,
      "ÐµÐ»": 150,
      "âĢĵ": 151,
      "ĠÐ¼": 152,
      "ĠÑĩ": 153,
      "Ñİ": 154,
      "ĠÑĤ": 155,
      "Ð½Ð¾": 156,
      "Ð¾Ð»": 157,
      "Âł": 158,
      "Ð¾Ð¼": 159,
      "ĠÐ¿ÑĢ": 160,
      "čĊ": 161,
      "Ð·": 162,
      "ĠÐ½Ðµ": 163,
      "ÑĤÑĮ": 164,
      "Ð¿": 165,
      "Ð¸Ð»": 166,
      "ĠÐ½Ð°": 167,
      "ĠÐµ": 168,
      "ĠÑĢ": 169,
      "ĠÐ¾Ð½": 170,
      "Ð°Ðº": 171,
      "Ð°Ð·": 172,
      "Ð¾Ð´": 173,
      "ĠÐ·": 174,
      "Ð±": 175,
      "ĠÑĥ": 176,
      "Ð°Ð½": 177,
      "ĠÑ": 178,
      "Ð¶": 179,
      "ĠÐ¿Ð¾": 180,
      "ÐµÐ¼": 181,
      "ĠÐ±Ñĭ": 182,
      "ĠÐ³": 183,
      "Ð°Ð²": 184,
      "ÐµÑĤ": 185,
      "Ð¾ÑĢ": 186,
      "ÑģÐº": 187,
      "ÑģÑı": 188,
      "Ð¸Ð½": 189,
      "ĠÑĩÑĤÐ¾": 190,
      "Ð³": 191,
      "ÑģÑĮ": 192,
      "Ð¾Ð¸": 193,
      "Ð°Ð¼": 194,
      "ÑĨ": 195,
      "ĠÐ»": 196,
      "ÐµÐ½Ð¸": 197,
      "Ð½Ñĭ": 198,
      "ÐµÐ´": 199,
      "ÑĢÐ°": 200,
      "ĠâĢĵ": 201,
      "ĠÑį": 202,
      "Ñī": 203,
      "Ð¸Ð²": 204,
      "Ð¾Ð³Ð¾": 205,
      "Ð°ÑĢ": 206,
      "ĠÐ°": 207,
      "ĠÐ¾ÑĤ": 208,
      "Ð¸Ð¼": 209,
      "ĠÐ±ÑĭÐ»": 210,
      "ĠÑĤÐ¾": 211,
      "Ð°Ñı": 212,
      "Ð¾Ð³": 213,
      "ÐµÐ¸": 214,
      "ÑĤÐ¾ÑĢ": 215,
      "Ð¸ÑĤ": 216,
      "Ð³Ð¾": 217,
      "Ð¾Ð±": 218,
      "ĠÐ¶": 219,
      "ĠÐ²Ñģ": 220,
      "Ð¾ÑĤ": 221,
      "ÑģÑĤÐ²": 222,
      "Ð½Ñı": 223,
      "Ð¸Ðº": 224,
      "Ð°ÑĤÑĮ": 225,
      "Ð°Ð´": 226,
      "Ð½Ð°": 227,
      "ĠÐºÐ°Ðº": 228,
      "ĠÑģÐ²": 229,
      "ĠÐºÐ¾": 230,
      "Ð´Ð°": 231,
      "ÑĢÑĥ": 232,
      "Ð¸Ð¸": 233,
      "ĠÐ²Ñĭ": 234,
      "ĠÑģÐº": 235,
      "Ð¾Ñģ": 236,
      "Ð¾Ð¶": 237,
      "Ð°Ð»Ð°": 238,
      "Ð°Ñģ": 239,
      "Ð¸Ð´": 240,
      "Ð»Ñı": 241,
      "Ð»Ð¸": 242,
      "ĠÐµÐ³Ð¾": 243,
      "ÐµÐ²": 244,
      "ÐµÐ³Ð¾": 245,
      "Ð½Ñĥ": 246,
      "Ð¸Ðµ": 247,
      "ĠÑģÑĤ": 248,
      "ĠÐ³Ð¾": 249,
      "Ð¾Ðº": 250,
      "ĠÐ¾Ð±": 251,
      "Ð¸Ñħ": 252,
      "ĠÐºÐ¾ÑĤÐ¾ÑĢ": 253,
      "ÐºÐ¾": 254,
      "ĠÐ¿Ð¾Ð´": 255,
      "ĠÑı": 256,
      "ĠÑįÑĤÐ¾": 257,
      "ĠÐ²ÑģÐµ": 258,
      "Ð°Ð»Ð¸": 259,
      "Ð¾ÑģÑĤ": 260,
      "ĠÑģÐºÐ°Ð·": 261,
      "ÐµÐ·": 262,
      "Ð¾Ð²Ð¾ÑĢ": 263,
      "Ð°Ð¶": 264,
      "ĠÐºÐ½Ñı": 265,
      "ĠÐ¸Ð·": 266,
      "ÑĥÐ´": 267,
      "ÐµÐ±": 268,
      "ĠÐ¿ÑĢÐ¸": 269,
      "ĠÑģÐ»": 270,
      "ĠÐ½Ð¾": 271,
      "ÐµÐ»ÑĮ": 272,
      "Ð°ÑĤ": 273,
      "ĠÑĤÐ°Ðº": 274,
      "Ð¸ÑĤÑĮ": 275,
      "Ð¸ÑĨ": 276,
      "ĠÑħ": 277,
      "Ð¾Ð½": 278,
      "ĠÑįÑĤ": 279,
      "ÑģÐ»": 280,
      "ÐµÑģÑĤ": 281,
      "ĠÐ¾Ð½Ð°": 282,
      "Ð¸Ñĩ": 283,
      "ÐµÐº": 284,
      "ÑĦ": 285,
      "Ð¸Ñı": 286,
      "ĠÐ¿ÐµÑĢ": 287,
      "Ð¾Ð»ÑĮ": 288,
      "ĠÐ·Ð°": 289,
      "ÑĥÑĤ": 290,
      "ÐµÐ¿": 291,
      "ĠÑĢÐ°Ð·": 292,
      "ĠÐ±ÑĭÐ»Ð¾": 293,
      "Ð»ÑĮ": 294,
      "Ð°Ð¼Ð¸": 295,
      "ÑĭÐ²": 296,
      "Ð¾Ð·": 297,
      "ÐµÑĩ": 298,
      "Ð°Ð¿": 299,
      "Ð»Ð°": 300,
      "ÐµÐ¶": 301,
      "ÐµÑģ": 302,
      "ÑĭÐ¸": 303,
      "ÑĮÐµÑĢ": 304,
      "Ð¾ÑĪ": 305,
      "Ð¼Ð¸": 306,
      "ĠÐ³Ð¾Ð²Ð¾ÑĢ": 307,
      "Ð½Ðµ": 308,
      "ĠÐ¾Ð´": 309,
      "Ð¾Ðµ": 310,
      "ĠÐ¿ÑĮÐµÑĢ": 311,
      "Ð¾Ð¼Ñĥ": 312,
      "ÐµÐ½Ð½Ð¾": 313,
      "ĠÑĪ": 314,
      "ÐµÐ½Ð¸Ñı": 315,
      "Ð¼Ñĥ": 316,
      "Ð°ÑĪ": 317,
      "ÑĢÑĥÐ³": 318,
      "ĠÑĦ": 319,
      "ĠÑĢÑĥ": 320,
      "ĠÐ¿Ð¾Ð»": 321,
      "ĠÐºÐ½ÑıÐ·": 322,
      "ÑģÑĤÑĮ": 323,
      "ÐµÐ½ÑĮ": 324,
      "ĠÑģÐºÐ°Ð·Ð°Ð»": 325,
      "Ð¸Ð»Ð°": 326,
      "Ð°Ð³": 327,
      "ÑĥÐ¼": 328,
      "ÑīÐµ": 329,
      "ÑĥÑİ": 330,
      "ĠÐ´Ð²": 331,
      "ĠÐ»Ñİ": 332,
      "Ð¾Ð¿": 333,
      "Ð¾Ð³Ð´Ð°": 334,
      "ĠÐ¶Ðµ": 335,
      "ÐµÐ½Ð¸Ðµ": 336,
      "ĠÐ°Ð½": 337,
      "ĠÑģÐ¿": 338,
      "ÑĥÐ¶": 339,
      "Ð¸Ð»Ð¸": 340,
      "ÑĢÐ°Ð½": 341,
      "ÑĥÐ·": 342,
      "ĠÐµÐ¼Ñĥ": 343,
      "ÐºÐ°": 344,
      "ÐµÑĪ": 345,
      "ĠÐµÐµ": 346,
      "Ð»ÑĮÐºÐ¾": 347,
      "ÑħÐ¾Ð´": 348,
      "ĠÑģÐ²Ð¾": 349,
      "ÑģÐ¿": 350,
      "âĢ¦": 351,
      "ÑĥÑĪ": 352,
      "ÑĭÐµ": 353,
      "Ð´ÑĢ": 354,
      "ĠÐ²Ð¸Ð´": 355,
      "Ġd": 356,
      "ÐºÐ¸": 357,
      "ĠÑĤÐ¾Ð»ÑĮÐºÐ¾": 358,
      "Ð°Ð±": 359,
      "Ð½Ð¾Ð¸": 360,
      "ĠÐ³Ð»": 361,
      "ÑĭÑħ": 362,
      "ÑĥÑĩ": 363,
      "ÐµÐ»Ð¸": 364,
      "ÐµÐ½Ð½Ñĭ": 365,
      "Ð¾ÑģÑĮ": 366,
      "Ð°Ñİ": 367,
      "ĠÑģÐ¼": 368,
      "ĠÐ¸Ð¼": 369,
      "ÑıÑĤ": 370,
      "ĠÑģÐ°Ð¼": 371,
      "es": 372,
      "ĠÐ½Ð¸Ðº": 373,
      "Ð½Ð¾Ð³Ð¾": 374,
      "ĠÑģÐµÐ±": 375,
      "ÐµÐ»Ð¾Ð²": 376,
      "Ð½Ð¸": 377,
      "ĠÐ´ÐµÐ»": 378,
      "ÑĭÐ¼": 379,
      "ĠÐºÑĢ": 380,
      "ou": 381,
      "ĠÐ¾Ð¿": 382,
      "ÐµÐ³": 383,
      "ÑģÑĤÑĢ": 384,
      "ĠÐ²Ð¾": 385,
      "ĠÐ³Ð¾Ð»": 386,
      "ĠÑĢÐ°Ñģ": 387,
      "ĠÑģÑĤÐ¾": 388,
      "ĠÐ±ÑĥÐ´": 389,
      "ÑĢÐ°Ð¶": 390,
      "ĠÐºÐ½ÑıÐ·ÑĮ": 391,
      "ÐºÑĥ": 392,
      "ÑģÑĤÐ¸": 393,
      "ĠÐ°Ð½Ð´ÑĢ": 394,
      "Ð¾Ð±Ñĭ": 395,
      "ÑģÑĤÐ°Ð²": 396,
      "ÑĢÐ°ÑĦ": 397,
      "ĠÐ²Ð·": 398,
      "ĠÐ´Ð»Ñı": 399,
      "ĠÐ»Ð¸ÑĨ": 400,
      "ĠÐ½Ð°Ð¿": 401,
      "ÐµÑĢÑĮ": 402,
      "Ð°Ñħ": 403,
      "Ð¸Ð·": 404,
      "Ġl": 405,
      "ĠÐ½Ð°ÑĤ": 406,
      "ĠÐ´Ð¾Ð»": 407,
      "ĠÐ¿ÑĢÐµÐ´": 408,
      "Ġm": 409,
      "en": 410,
      "ĠÐ¿Ð¾ÑģÐ»": 411,
      "ĠÐ³ÑĢÐ°ÑĦ": 412,
      "Ð¸Ñģ": 413,
      "Ð¾Ñĩ": 414,
      "ĠÐ´ÑĢÑĥÐ³": 415,
      "ÑĢÐµÐ¼": 416,
      "ĠÐ½Ð°ÑĤÐ°ÑĪ": 417,
      "ÐµÑħ": 418,
      "Ð°ÐµÑĤ": 419,
      "Ð´Ðµ": 420,
      "ÑĥÐ¿": 421,
      "ĠÑģÐ²Ð¾Ð¸": 422,
      "Ð¾ÑĤÑĢ": 423,
      "Ð°Ð²ÑĪ": 424,
      "ÑĥÐ²": 425,
      "Ġc": 426,
      "âĢĻ": 427,
      "ĠÐ¿Ð¾ÑĤ": 428,
      "re": 429,
      "Ð°Ð»ÑĮ": 430,
      "Ġp": 431,
      "Ð¾Ð²Ð°": 432,
      "ÑĢÐ¾Ñģ": 433,
      "ĠÑĩÑĤ": 434,
      "Ð¸ÑĤÐµÐ»ÑĮ": 435,
      "ĠÑĥÐ¶": 436,
      "ĠÑĩÐµÐ»Ð¾Ð²": 437,
      "ÐµÐµ": 438,
      "Ð¸Ð»ÑģÑı": 439,
      "ĠÐµÑīÐµ": 440,
      "ĠÐºÐ¾Ð³Ð´Ð°": 441,
      "Ð½Ð¾Ðµ": 442,
      "ÑĥÑĢ": 443,
      "ĠÐ¼Ð¾Ð³": 444,
      "ÑĢÐ°Ð½ÑĨ": 445,
      "Ð°ÑĢÑĮ": 446,
      "on": 447,
      "Â«": 448,
      "Ð½ÑĥÐ»": 449,
      "Â»": 450,
      "Ð°Ð»ÑģÑı": 451,
      "ĠÐ¿Ð»": 452,
      "ĠÂ«": 453,
      "ĠÐ½Ð°Ð´": 454,
      "ÑĢÐ°Ð²": 455,
      "Ð½ÑĭÐ¼": 456,
      "ĠÐ·Ð½": 457,
      "ÑĢÐ°ÑĤ": 458,
      "ÑıÑĤÑĮ": 459,
      "Ð½ÑĭÐ¸": 460,
      "ÑĥÐ²ÑģÑĤÐ²": 461,
      "ĠÑĦÑĢÐ°Ð½ÑĨ": 462,
      "ÐµÐ¼Ñĥ": 463,
      "ĠÑĢÐ¾ÑģÑĤ": 464,
      "ĠÑģÐ¾": 465,
      "ĠÐ¼Ð¾": 466,
      "ĠÐ±Ð¾Ð»ÑĮ": 467,
      "ĠÐ¿Ð¾Ðº": 468,
      "ÑĩÐ°": 469,
      "Ð½Ð¸Ð¼": 470,
      "ĠÐ½Ð¸": 471,
      "ĠÑĩÐµÐ»Ð¾Ð²ÐµÐº": 472,
      "Ð½Ð¸Ðº": 473,
      "ÑĬ": 474,
      "ĠÑĤÐµÐ¿": 475,
      "ĠÐ²ÑĢÐµÐ¼": 476,
      "ĠÐ»ÑİÐ´": 477,
      "ĠÐ¾ÑĤÐ²": 478,
      "ĠÑĤÑĭ": 479,
      "ÐµÐ½Ð¸Ð¸": 480,
      "ĠÑĩÑĤÐ¾Ð±Ñĭ": 481,
      "Ð¸ÑģÑĮ": 482,
      "ĠÐ¼Ñĭ": 483,
      "ĠÑĦÑĢÐ°Ð½ÑĨÑĥÐ·": 484,
      "ĠÐ¼Ð¾Ð»": 485,
      "ĠÑĤÑĢ": 486,
      "ĠÐ»ÑİÐ±": 487,
      "ĠÑģÑĤÐ°ÑĢ": 488,
      "Ð¸ÑĤÐµ": 489,
      "Ð¸Ð²ÑĪ": 490,
      "Ð´ÐµÐ»": 491,
      "ĠÐ¾Ð½Ð¸": 492,
      "ĠÑĨ": 493,
      "ĠÐ·Ð½Ð°": 494,
      "Ð°Ð¸": 495,
      "ÑĪÐµ": 496,
      "Ð³Ð»Ñı": 497,
      "ĠÑĤÐ¾Ð³Ð¾": 498,
      "ĠÐºÐ½ÑıÐ¶": 499,
      "Ġa": 500,
      "ĠÐ½ÐµÐ³Ð¾": 501,
      "Ð½ÑĭÐµ": 502,
      "ĠÐ±ÑĭÐ»Ð°": 503,
      "ĠÐ³Ð»Ð°Ð·": 504,
      "ĠÐ±ÑĭÐ»Ð¸": 505,
      "ĠÐ¾Ñĩ": 506,
      "ĠÑĤÐµÐ¿ÐµÑĢÑĮ": 507,
      "ĠÐ°Ð½Ð´ÑĢÐµÐ¸": 508,
      "ÑĭÑĪ": 509,
      "ĠÑģÐ¾Ð²": 510,
      "Ð¸Ð¼Ð¸": 511,
      "Ð°ÑıÑģÑĮ": 512,
      "ĠÑĩÑĥÐ²ÑģÑĤÐ²": 513,
      "er": 514,
      "ÑģÐ¼": 515,
      "ĠÑĥÐ»": 516,
      "ĠÑĢÐ¾ÑģÑĤÐ¾Ð²": 517,
      "ÐµÐ»Ð°": 518,
      "Ð°Ð»Ð¾ÑģÑĮ": 519,
      "ÐºÐ¾Ð¸": 520,
      "Ð°Ð·ÑĭÐ²": 521,
      "Ġv": 522,
      "Ġs": 523,
      "ÐµÑģÐº": 524,
      "ĠÐ´ÑĥÐ¼": 525,
      "ĠÑģÐµÐ±Ñı": 526,
      "Ð°Ð»Ð¸ÑģÑĮ": 527,
      "ĠÐ²ÐµÑĢ": 528,
      "ĠÐºÐ¾Ð¼": 529,
      "ĠÐ±Ð¾Ð»": 530,
      "ai": 531,
      "ĠÐ¼Ð¾Ð¶": 532,
      "ÑĤÐ¸": 533,
      "ĠÐ´Ð¾": 534,
      "ĠÐ¼Ð°ÑĢÑĮ": 535,
      "ÑģÑĤÐ²Ð¾": 536,
      "ÑĢÐ¾Ð´": 537,
      "Ð¿ÐµÑĢ": 538,
      "ĠÑįÑĤÐ¾Ð³Ð¾": 539,
      "ĠÐ½Ð°ÑĤÐ°ÑĪÐ°": 540,
      "ĠÐ²Ð¾Ð·": 541,
      "ÑıÐ»": 542,
      "ĠÐ¸Ñħ": 543,
      "ÑĥÐ±": 544,
      "ĠÑĤÐ¾Ð¼": 545,
      "Ġde": 546,
      "ĠÐ¸Ð»Ð¸": 547,
      "ĠÐ±ÑĭÑĤÑĮ": 548,
      "ĠÐ¼Ð½Ðµ": 549,
      "ÑĭÐ±": 550,
      "ÑĢÐ°Ñģ": 551,
      "ĠÐ¾Ñģ": 552,
      "Ġ(": 553,
      "ĠÐ¾ÑģÑĤ": 554,
      "ĠÑĥÐ»ÑĭÐ±": 555,
      "ÑĥÑħ": 556,
      "Ð°Ð½Ð¸Ñı": 557,
      "ĠÑħÐ¾ÑĤ": 558,
      "ÐµÐ½Ñı": 559,
      "ĠÑĤÐµÐ¼": 560,
      "ĠÑĥÐ¶Ðµ": 561,
      "ĠÑģÐ¾Ð»": 562,
      "qu": 563,
      "ĠÐ½ÐµÐ¿": 564,
      "Ð½Ð¾ÑģÑĤÑĮ": 565,
      "Ð¾Ñħ": 566,
      "Ð½ÑĭÑħ": 567,
      "ĠÑģÐ¾Ð±": 568,
      "ĠÐ°ÑĢ": 569,
      "ĠÐ½Ð°Ñĩ": 570,
      "ĠÑĥÐ²": 571,
      "ĠÐ±Ð»": 572,
      "ĠÐ¼Ð¾ÑģÐº": 573,
      "ĠÐ²ÑĢÐµÐ¼Ñı": 574,
      "Ð»Ð¸Ð²": 575,
      "Ð¸ÑĢ": 576,
      "ĠÑģÐ´ÐµÐ»": 577,
      "ĠÑģÐºÐ°Ð·Ð°Ð»Ð°": 578,
      "ÐµÑĤÑĮ": 579,
      "ÑģÑĥÐ´": 580,
      "ĠÑĥÐ´": 581,
      "ĠÐ¿ÐµÑĢÐµÐ´": 582,
      "ÑĤÑĭ": 583,
      "ĠÐ³Ð¾Ð²Ð¾ÑĢÐ¸Ð»": 584,
      "Ð½Ð¾Ð²": 585,
      "ĠÐ±ÐµÐ·": 586,
      "ĠÐ´ÑĢÑĥ": 587,
      "ĠÐ¸ÑģÐ¿": 588,
      "Ð°Ð½Ð¾Ð²": 589,
      "et": 590,
      "ĠÐ½Ð¸Ñĩ": 591,
      "ĠÐ¿ÑĢÐ¾": 592,
      "Ð¸Ð¶": 593,
      "ÑıÐ½": 594,
      "Ð°Ð»Ð¾": 595,
      "ĠÐºÐ¾ÑĤÐ¾ÑĢÑĭÐµ": 596,
      "ÑĦÐ¸ÑĨ": 597,
      "ĠÐ»Ð¸": 598,
      "Ð½Ð°Ñı": 599,
      "ĠÐºÐ°Ð·": 600,
      "ĠÑģÐµÐ±Ðµ": 601,
      "ĠÐ³Ð¾ÑģÑĥÐ´": 602,
      "ĠÐ·Ð°Ð¼": 603,
      "Ð¸Ð½Ð°": 604,
      "Ð¾Ð»Ðµ": 605,
      "ÑģÑĤÑĥÐ¿": 606,
      "ĠÐ²Ð°Ñģ": 607,
      "ne": 608,
      "Ð»Ñİ": 609,
      "ĠÐ½Ð¸ÐºÐ¾Ð»": 610,
      "Ð½Ð¾Ð¼": 611,
      "ÑĢÑĭ": 612,
      "Ð½Ð¾ÑģÑĤÐ¸": 613,
      "Ð°Ð½Ð¸Ðµ": 614,
      "ĠÐ¼Ð¾ÑģÐºÐ²": 615,
      "ÐµÑĢÐ¶": 616,
      "ĠÐµÐ¸": 617,
      "ĠÐ¶Ð¸Ð·": 618,
      "ÑĢÐ°Ð·": 619,
      "ĠÑĩÐµÑĢ": 620,
      "ĠÑĩÐµÐ¼": 621,
      "an": 622,
      "ÐºÐ¾Ð²": 623,
      "ĠÐ¿Ð¾Ð²": 624,
      "ĠÑģÐ¾Ð»Ð´Ð°": 625,
      "ÑĦÐ¸ÑĨÐµÑĢ": 626,
      "ÑĢÑı": 627,
      "ĠÐºÐ¾ÑĤÐ¾ÑĢÑĭÐ¸": 628,
      "le": 629,
      "ÑģÑģÐº": 630,
      "ĠÐ·Ð°Ðº": 631,
      "Ð²ÑĪ": 632,
      "Ð´Ñĥ": 633,
      "ĠÐ¼ÐµÐ½Ñı": 634,
      "ĠÐ¾Ð¿ÑıÑĤÑĮ": 635,
      "ÑİÑĤ": 636,
      "ÐºÐµ": 637,
      "ÑģÑĤÐ²Ð°": 638,
      "ĠÑįÑĤÐ¾ÑĤ": 639,
      "ĠÐ½Ð°Ð¿Ð¾Ð»Ðµ": 640,
      "Ð½ÑĥÑİ": 641,
      "ĠÐ´Ð¾Ð¼": 642,
      "Ð¾ÑĢÐ¾ÑĪ": 643,
      "Ð°ÑĤÑĮÑģÑı": 644,
      "ĠÐ³Ð¾Ð»Ð¾Ñģ": 645,
      "ĠÐ¿ÐµÑĤ": 646,
      "ĠÐ¿Ð¾Ñĩ": 647,
      "ĠÐ¾Ð´Ð¸Ð½": 648,
      "ĠÐ´Ð°": 649,
      "ĠÐ²Ð¾Ð¸": 650,
      "Ġqu": 651,
      "Ð»Ð¾": 652,
      "ĠÐºÑĥÑĤ": 653,
      "ÑĪÐµÐ»": 654,
      "ĠÐ²Ð´": 655,
      "ĠÐ²ÑģÐµÑħ": 656,
      "ĠÐ¶ÐµÐ½": 657,
      "ĠÐ¾ÑĦÐ¸ÑĨÐµÑĢ": 658,
      "ÑĢÐ°Ñı": 659,
      "ĠÐ¸Ñģ": 660,
      "ĠÐ´Ð¾Ð»Ð¶": 661,
      "Ð¾ÑģÑĤÐ¾": 662,
      "ous": 663,
      "ÑĥÑģÑĤ": 664,
      "ÑĤÐµ": 665,
      "ĠÐºÐ½ÑıÐ¶Ð½Ð°": 666,
      "Ð¸Ð½Ñı": 667,
      "Ð¸Ð½Ñĥ": 668,
      "ĠÐ¿Ð¾ÑĤÐ¾Ð¼Ñĥ": 669,
      "Ð»ÐµÐ½": 670,
      "ĠÑģÐ¼Ð¾ÑĤÑĢ": 671,
      "ĠÐ³Ð¾Ð»Ð¾Ð²": 672,
      "ĠÐºÑĥÑĤÑĥÐ·": 673,
      "ĠÑĢÑĥÑģÑģÐº": 674,
      "Ð¾Ð»ÑĮÐºÐ¾": 675,
      "ĠÐ½Ð¸ÑĩÐµÐ³Ð¾": 676,
      "ĠÐ²ÐµÐ»": 677,
      "Ð¾ÑģÑĤÐ¸": 678,
      "ĠÐºÐ¾Ð»": 679,
      "ĠÐµÑģÑĤÑĮ": 680,
      "ÐµÑĨ": 681,
      "ĠÑĥÐ¼": 682,
      "ĠÐ¿Ð¾ÑģÐ»Ðµ": 683,
      "Ð°Ð»Ð°ÑģÑĮ": 684,
      "ÐµÑĢÐ´": 685,
      "Ð¸Ð»Ð°ÑģÑĮ": 686,
      "ĠÐ¼Ð¸Ð½": 687,
      "ĠÑĢÐ°Ð´": 688,
      "ÑģÐ¼Ð¾ÑĤÑĢ": 689,
      "ĠÐ¾Ðº": 690,
      "ĠÐ²Ð¾Ð¸ÑģÐº": 691,
      "ĠÐ¿ÑĢÐ¾Ð¸": 692,
      "ĠÑģÐ²Ð¾ÐµÐ¸": 693,
      "ĠÐ¿ÑĢÐ°Ð²": 694,
      "Ð¸Ð½Ñĭ": 695,
      "ĠÐ¿ÐµÑĢÐ²": 696,
      "ĠÐ¾ÑĩÐµÐ½ÑĮ": 697,
      "ĠÑģÐ¸Ð»": 698,
      "ĠÐ±Ð¾ÑĢ": 699,
      "ĠÐ¿Ð¾Ð¼": 700,
      "te": 701,
      "ÑĢÐµÐ´": 702,
      "ÐµÑĤÐµ": 703,
      "ĠÑħÐ¾ÑĢÐ¾ÑĪ": 704,
      "ÐµÐ½Ð¸ÐµÐ¼": 705,
      "ÑĢÐ°ÑĪ": 706,
      "ĠÐ´ÑĢÑĥÐ³Ð¾": 707,
      "ĠÐ±Ð¾Ð»ÑĮÑĪ": 708,
      "ĠÐ²Ð¾Ð»": 709,
      "ĠÐ¿ÑĢÐ¸Ðº": 710,
      "ĠÐ±ÐµÑģ": 711,
      "ĠÐ¼Ð°ÑĢÑĮÑı": 712,
      "Ð¾ÑĤÐ¸Ð²": 713,
      "ÑĩÐ°ÑģÑĤ": 714,
      "Ð½ÐµÐµ": 715,
      "ĠÐ²Ð¾ÑĤ": 716,
      "Ð¾ÑĪÐ°Ð´": 717,
      "ĠÐ»Ð¸ÑĨÐ¾": 718,
      "ĠÐ²Ð´ÑĢÑĥÐ³": 719,
      "ÑģÐºÐ¸Ð¸": 720,
      "ĠÐ½ÐµÑĤ": 721,
      "ĠÐ»Ð¾ÑĪÐ°Ð´": 722,
      "ĠÐ²Ð·Ð³Ð»Ñı": 723,
      "Ð¸ÑĤÑĮÑģÑı": 724,
      "ÐµÑı": 725,
      "Ð¸Ð»Ð¸ÑģÑĮ": 726,
      "ĠÐ¾ÑĤÐ²ÐµÑĩ": 727,
      "ĠÐ½Ð¸Ð¼": 728,
      "ĠÐ¶ÐµÐ»": 729,
      "ĠÐ¼ÑĥÐ¶": 730,
      "Ð°ÑİÑĤ": 731,
      "ÐµÑĤÑģÑı": 732,
      "ĠÐ¿Ð¾Ð·": 733,
      "Ð°Ð½Ð´": 734,
      "Ġb": 735,
      "ĠÐ½ÐµÐ²": 736,
      "ÑĨÐ°": 737,
      "ĠÐ±ÑĥÐ´ÐµÑĤ": 738,
      "ĠÐ±ÑĥÐ´ÑĤÐ¾": 739,
      "Ð¸Ð³": 740,
      "ĠÑĤÐ¾Ð»": 741,
      "ĠÐ¼Ð¾Ð»Ð¾Ð´": 742,
      "ĠÐ¿ÑĢÐµÐ¶": 743,
      "ĠÐ¿ÑĮÐµÑĢÐ°": 744,
      "ÑıÑī": 745,
      "ĠÐ±Ð¾Ð³": 746,
      "ĠÑĤÐ¾ÑĤ": 747,
      "Ð¸ÑĤÐµÐ»ÑĮÐ½Ð¾": 748,
      "ÐµÑĢÐ¸": 749,
      "ri": 750,
      "ÐµÑī": 751,
      "ĠÐ²ÑĭÑĢÐ°Ð¶": 752,
      "Ġf": 753,
      "ĠÐ¼Ð¾Ð¶ÐµÑĤ": 754,
      "ĠÐ³ÐµÐ½": 755,
      "Ð¸Ð¼Ð¾": 756,
      "Ð°ÑİÑī": 757,
      "ĠÐ²Ð°ÑĪ": 758,
      "ĠÐ»ÑİÐ´ÐµÐ¸": 759,
      "Ġ1": 760,
      "ĠÑģÑĤÐ¾ÑĢ": 761,
      "ĠÐ´Ð¾ÑĢ": 762,
      "ÑģÐºÐ¾Ð³Ð¾": 763,
      "ĠÐ¸ÑģÑĤÐ¾ÑĢ": 764,
      "Ð¸ÑĪ": 765,
      "ĠÐ½Ð°Ð´Ð¾": 766,
      "ĠÑģÐ¾Ð»Ð´Ð°ÑĤ": 767,
      "ÐµÐ½Ð¸Ñģ": 768,
      "ĠÐ½ÐµÑģÐº": 769,
      "Ð¾ÑģÑĤÑĮ": 770,
      "ÐµÑĢÑĪ": 771,
      "ĠÐµÐ¶": 772,
      "Ð¿ÑĢ": 773,
      "Ð¾ÑĪÐµÐ»": 774,
      "ĠÐ¼Ð¸Ð½ÑĥÑĤ": 775,
      "ĠÑĥÐ±": 776,
      "ÑĭÐ¼Ð¸": 777,
      "ĠÐ¸Ð·Ð²": 778,
      "ĠÐºÐ¾Ð¼Ð½Ð°": 779,
      "ÑĥÑģ": 780,
      "ĠÐ¿ÑĢÐ¾Ð´": 781,
      "ĠÐ½ÐµÐ¼": 782,
      "Ð¸ÑĩÐµÑģÐº": 783,
      "Ð¾Ð¿ÑĢÐ¾Ñģ": 784,
      "Ð¾Ñİ": 785,
      "ĠÐ½Ð°ÑĪ": 786,
      "ĠÐºÑĢÐ°Ñģ": 787,
      "ĠÑĢÐ°": 788,
      "ĠÐºÐ°Ð¶": 789,
      "ĠÐ½ÐµÐ¸": 790,
      "ĠÐ²Ð¾Ñģ": 791,
      "ĠÐ¿ÑĢÐ¸Ð½": 792,
      "ÐµÐ¸ÑģÑĤÐ²": 793,
      "ĠÑģÑĤÑĢ": 794,
      "ĠÐ´ÐµÐ½Ð¸Ñģ": 795,
      "ĠÑįÑĤÐ¸": 796,
      "ĠÐ·Ð²": 797,
      "ĠÐ¿ÑĢÐµÐ´ÑģÑĤÐ°Ð²": 798,
      "Ð½ÑĥÐ»ÑģÑı": 799,
      "ÐµÐ»Ð¾": 800,
      "ÐµÐ³Ð´Ð°": 801,
      "ÑĢÑĥÐ´": 802,
      "Ġn": 803,
      "ĠÑģÑĢÐ°Ð¶": 804,
      "Ð¾Ð½Ð°": 805,
      "ĠÐ·Ð°Ð²": 806,
      "ĠÐ¿Ð¾Ð½Ñı": 807,
      "ĠÐµÐ¶ÐµÐ»Ð¸": 808,
      "ĠÐ½Ð¾Ð²": 809,
      "ĠÐ´ÐµÐ½ÑĮ": 810,
      "Ð¸ÑıÑĤ": 811,
      "ĠÐºÐ½ÑıÐ·Ñı": 812,
      "ĠÐ³ÐµÐ½ÐµÑĢ": 813,
      "ĠÑģÐ¾Ð²ÐµÑĢÑĪ": 814,
      "ĠÐ½ÐµÐ¿ÑĢ": 815,
      "ĠÐ¾ÑģÐ¾Ð±": 816,
      "ĠÐ±Ð¾Ð»ÐµÐµ": 817,
      "ĠÑģÐ»ÑĭÑĪ": 818,
      "ĠÑĢÐ°Ð·Ð³": 819,
      "ĠÐ³Ð¾ÑģÑĥÐ´Ð°ÑĢ": 820,
      "ĠÐ½Ð°Ð·": 821,
      "ĠÐ¿Ð¾Ð½Ð¸Ð¼": 822,
      "ĠÐ³Ð»Ð°Ð·Ð°": 823,
      "ĠÑģÐ¸Ð´": 824,
      "ÐºÐ¾Ð¼": 825,
      "Ġt": 826,
      "ĠÐºÐ¾Ð½": 827,
      "ĠÑģÐ¿ÑĢÐ¾Ñģ": 828,
      "ÑĢÐ¾Ð¼": 829,
      "ÑĥÐ´ÑĮ": 830,
      "ÐµÑĪÑĮ": 831,
      "ĠÐ¼Ð¾Ð¸": 832,
      "Ð°Ð½ÑĤ": 833,
      "Ð½ÑĭÐ¼Ð¸": 834,
      "Ð¸Ð½Ðµ": 835,
      "ĠÑģÐ²Ð¾ÐµÐ³Ð¾": 836,
      "ĠÐºÑĥÑĤÑĥÐ·Ð¾Ð²": 837,
      "ĠÐ¾Ð¶": 838,
      "Ð¾Ð²Ð°Ð»": 839,
      "ĠÐ½Ð°Ñģ": 840,
      "ĠÐ³Ð´Ðµ": 841,
      "ĠÐ¿ÑĢÐ¸Ð²": 842,
      "ĠÐ·Ð°Ð¿": 843,
      "Ġj": 844,
      "ÑıÐ·": 845,
      "ĠÑĤÐµÐ±": 846,
      "ĠÐ¾ÑĤÐº": 847,
      "ÑıÐ´": 848,
      "ĠÐ¾ÑģÑĤÐ°Ð½Ð¾Ð²": 849,
      "ÑĭÑĤ": 850,
      "ĠÑĢÐ°ÑģÑģÐº": 851,
      "ĠÐ´ÑĢÑĥÐ³Ð¾Ð¸": 852,
      "Ð·Ð½": 853,
      "Ð¾Ð¶Ðµ": 854,
      "ÐµÑģÑĤÐµ": 855,
      "ĠÐ¿Ð¾Ð»Ð¾Ð¶": 856,
      "ĠÐ´ÐµÐ»Ð¾": 857,
      "Ð¸Ð²Ð°Ñı": 858,
      "oi": 859,
      "ĠÑģÐ²Ð¾Ñİ": 860,
      "Ð»Ð°ÑģÑĮ": 861,
      "ĠÐºÑĤÐ¾": 862,
      "ĠÐ²ÑģÐµÐ³Ð´Ð°": 863,
      "Ġet": 864,
      "ĠÐ½ÐµÑģÐºÐ¾Ð»ÑĮÐºÐ¾": 865,
      "ÑĥÐ³": 866,
      "ĠÐ²Ð¿ÐµÑĢ": 867,
      "ĠÐ¾ÑģÑĤÐ°Ð²": 868,
      "Ð¿Ð¾Ð»": 869,
      "ĠÐ²ÑĭÑģ": 870,
      "ĠÐ²Ð¿ÐµÑĢÐµÐ´": 871,
      "Ð¾Ð»Ð¶": 872,
      "ĠÐ¶Ð¸Ð·Ð½Ð¸": 873,
      "ÐµÑİ": 874,
      "ĠÐ²ÐµÑģ": 875,
      "ĠÐ²Ð¾Ð¿ÑĢÐ¾Ñģ": 876,
      "ĠÐ¿Ð¾Ñģ": 877,
      "ĠÐ³Ð»Ð°Ð²": 878,
      "ĠÐ°ÑĢÐ¼": 879,
      "ĠÐ½Ð¸ÐºÐ¾Ð»Ð°Ð¸": 880,
      "Ð¸Ñİ": 881,
      "ĠÐ²ÑģÑı": 882,
      "ĠÐ´Ð²Ð¸Ð¶": 883,
      "ĠÐ¼Ð°Ð»": 884,
      "ÐµÐ¶Ð´Ñĥ": 885,
      "ĠÐ½ÑĥÐ¶": 886,
      "ĠÑĩÐ°Ñģ": 887,
      "Ð°ÐµÐ¼": 888,
      "Ð¸ÑģÑĤ": 889,
      "Ð¸Ð»Ð¾": 890,
      "ÐµÐ½Ð½ÑĭÐ¸": 891,
      "ĠÐ½ÐµÐ´": 892,
      "ÑĥÐ´Ð°": 893,
      "ĠÐ´Ð°Ð²": 894,
      "ĠÐ¿Ð¾ÑģÐ»ÐµÐ´": 895,
      "ÑıÐ¶": 896,
      "ĠÐºÐ¾ÑĢ": 897,
      "ĠÐ¿ÑĢÐ¾ÑĤÐ¸Ð²": 898,
      "ĠÐ·Ð°Ð±": 899,
      "ÑģÑĤÐ²ÐµÐ½Ð½Ð¾": 900,
      "ĠÐ¿ÑĢÐ¾Ð´Ð¾Ð»Ð¶": 901,
      "Ð½ÑĮ": 902,
      "ĠÐ°Ð»": 903,
      "ĠÐ²ÑģÐµÐ¼": 904,
      "ĠÐ½Ð°Ð¿Ð¾Ð»ÐµÐ¾Ð½": 905,
      "ĠÑģÐ»Ð¾Ð²": 906,
      "ĠÑĥÐ²Ð¸Ð´": 907,
      "ÑĤÐ¾Ð²": 908,
      "eu": 909,
      "Ġpa": 910,
      "ĠÐ¼ÐµÐ¶Ð´Ñĥ": 911,
      "ĠÐ½ÐµÐµ": 912,
      "ÑĢÐ°Ñī": 913,
      "Ð¼Ð¾": 914,
      "Ð¸Ð»Ð¾ÑģÑĮ": 915,
      "ĠÐ´Ð¾ÑĢÐ¾Ð³": 916,
      "Ð¿Ð¾Ð¼": 917,
      ",[": 918,
      "ĠÐ·Ð°Ð½": 919,
      "ÑĥÑī": 920,
      "ĠÑĩÐµÐ»Ð¾Ð²ÐµÐºÐ°": 921,
      "ĠÐ´ÐµÐ¸ÑģÑĤÐ²": 922,
      "ĠÐºÐ¾ÑĤÐ¾ÑĢÐ¾Ðµ": 923,
      "il": 924,
      "ÑģÐ»Ð¸": 925,
      "ĠÐ¿Ð¾Ð±": 926,
      "ÐµÐ·Ð¶": 927,
      "Ð½ÐµÐ¸": 928,
      "..": 929,
      "ÑĭÑĩ": 930,
      "ĠÑĢÐµÑĪ": 931,
      "om": 932,
      "ĠÐ¸Ð½": 933,
      "ĠÐ´Ð¾Ð±": 934,
      "ĠÐ´ÑĥÑĪ": 935,
      "ĠÐ¼Ð¸Ð»": 936,
      "ĠÐ´ÑĢ": 937,
      "ĠÐºÐ¾ÑĤÐ¾ÑĢÐ¾Ð¸": 938,
      "Ð¾Ð´Ð°": 939,
      "ÑĩÐµ": 940,
      "ĠÐ³Ð¾ÑĢ": 941,
      "ĠÐ²Ð¼": 942,
      "ÑĩÐ°Ñģ": 943,
      "ÑĤÐ¾Ð¸": 944,
      "ĠÐ¿ÑĢÐ¸ÐºÐ°Ð·": 945,
      "ĠÐºÐ¾ÑĤÐ¾ÑĢÐ¾Ð³Ð¾": 946,
      "ĠÑįÑĤÐ¾Ð¼": 947,
      "ÐµÐ½Ð½ÑĭÐ¼": 948,
      "ĠÐ´Ðµ": 949,
      "ÑĮÑı": 950,
      "ÑģÑĤÑĢÐ¾": 951,
      "ÑĥÑģÐº": 952,
      "ÐµÑĢÐ³": 953,
      "ĠÑģÐ»ÑĥÑĩ": 954,
      "ĠÐ±Ð¾Ð»ÑĮÑĪÐµ": 955,
      "Ð±ÑĥÐ´ÑĮ": 956,
      "ĠÐ³ÐµÐ½ÐµÑĢÐ°Ð»": 957,
      "me": 958,
      "ĠÑģÑĭ": 959,
      "ĠÐ´Ð¾Ðº": 960,
      "ĠÑģÐ²Ð¾Ðµ": 961,
      "Ð½Ð¸Ð±ÑĥÐ´ÑĮ": 962,
      "ĠÑħÐ¾ÑĤÐµÐ»": 963,
      "ĠÐ½Ð°Ð¼": 964,
      "ĠÐ¾Ð³Ð»Ñı": 965,
      "ĠÐ½Ð°ÑħÐ¾Ð´": 966,
      "ĠÑĥÑĤ": 967,
      "ĠÑĥÐº": 968,
      "ĠÐ¸Ð¼Ð¿ÐµÑĢ": 969,
      "ĠÐºÐ°ÑĢ": 970,
      "ĠÑĢÑĥÐºÑĥ": 971,
      "ĠÐ´Ð¾Ð»Ð¾Ñħ": 972,
      "ĠÐ½ÐµÑģ": 973,
      "Ð´Ñı": 974,
      "ÐµÐ½Ð°": 975,
      "Ġ2": 976,
      "ÑĤÐ°Ðº": 977,
      "ĠÐ²Ð°Ð¼": 978,
      "ÐºÐ°Ð¼Ð¸": 979,
      "Ñį": 980,
      "Ð°ÐµÑĤÑģÑı": 981,
      "Ð»Ð°Ð´": 982,
      "ÐµÐ»Ñı": 983,
      "ĠÐ½Ð°ÑĢÐ¾Ð´": 984,
      "ĠÑģÑĤÐ¾Ñı": 985,
      "ĠÑĢÐ°Ð·Ð³Ð¾Ð²Ð¾ÑĢ": 986,
      "ĠÐ²ÐµÑĩ": 987,
      "ĠÐ¿ÑĢÐ¸Ð±": 988,
      "Ġla": 989,
      "ĠÑĥÐ¿": 990,
      "Ð¾Ð³Ð¾Ð²Ð¾ÑĢ": 991,
      "ent": 992,
      "ĠÐ¾ÑģÐ¾Ð±ÐµÐ½Ð½Ð¾": 993,
      "ÐµÐ²ÑĪ": 994,
      "Ð°ÑĤÐµÐ»ÑĮ": 995,
      "ÑĥÑİÑī": 996,
      "Ġvous": 997,
      "ÑģÐºÐ¾Ð¸": 998,
      "ĠÐ»ÑİÐ´Ð¸": 999
    },
    "merges": [
      [
        "Ġ",
        "Ð"
      ],
      [
        "Ð",
        "¾"
      ],
      [
        "Ð",
        "°"
      ],
      [
        "Ð",
        "µ"
      ],
      [
        "Ð",
        "¸"
      ],
      [
        "Ñ",
        "Ĥ"
      ],
      [
        "Ñ",
        "ģ"
      ],
      [
        "Ð",
        "»"
      ],
      [
        "Ð",
        "½"
      ],
      [
        "Ñ",
        "Ģ"
      ],
      [
        "Ð¾",
        "Ð"
      ],
      [
        "Ñ",
        "ĥ"
      ],
      [
        "Ð°",
        "Ð"
      ],
      [
        "Ñ",
        "ı"
      ],
      [
        "Ñ",
        "Į"
      ],
      [
        "Ñ",
        "ĭ"
      ],
      [
        "Ġ",
        "Ñģ"
      ],
      [
        "ĠÐ",
        "¿"
      ],
      [
        "ĠÐ",
        "½"
      ],
      [
        "ĠÐ",
        "²"
      ],
      [
        "Ðµ",
        "Ð"
      ],
      [
        "Ð",
        "º"
      ],
      [
        "Ñ",
        "ĩ"
      ],
      [
        "Ð",
        "²"
      ],
      [
        "ĠÐ",
        "¾"
      ],
      [
        "ĠÐ",
        "¸"
      ],
      [
        "ÑĤ",
        "Ð¾"
      ],
      [
        "Ð",
        "´"
      ],
      [
        "ĠÐ",
        "º"
      ],
      [
        "Ð",
        "¼"
      ],
      [
        "Ð°",
        "Ð»"
      ],
      [
        "Ñģ",
        "ÑĤ"
      ],
      [
        "Ñ",
        "Ī"
      ],
      [
        "Ð¾Ð",
        "²"
      ],
      [
        "ĠÐ",
        "´"
      ],
      [
        "Ðµ",
        "Ð½"
      ],
      [
        "Ñ",
        "ħ"
      ],
      [
        "³",
        "Ð¾"
      ],
      [
        "ĠÐ",
        "±"
      ],
      [
        "â",
        "Ģ"
      ],
      [
        "Ðµ",
        "ÑĢ"
      ],
      [
        "Ðµ",
        "Ð»"
      ],
      [
        "âĢ",
        "ĵ"
      ],
      [
        "ĠÐ",
        "¼"
      ],
      [
        "Ġ",
        "Ñĩ"
      ],
      [
        "Ñ",
        "İ"
      ],
      [
        "Ġ",
        "ÑĤ"
      ],
      [
        "Ð½",
        "Ð¾"
      ],
      [
        "Ð¾",
        "Ð»"
      ],
      [
        "Â",
        "ł"
      ],
      [
        "Ð¾Ð",
        "¼"
      ],
      [
        "ĠÐ¿",
        "ÑĢ"
      ],
      [
        "č",
        "Ċ"
      ],
      [
        "Ð",
        "·"
      ],
      [
        "ĠÐ½",
        "Ðµ"
      ],
      [
        "ÑĤ",
        "ÑĮ"
      ],
      [
        "Ð",
        "¿"
      ],
      [
        "Ð¸",
        "Ð»"
      ],
      [
        "ĠÐ½",
        "Ð°"
      ],
      [
        "ĠÐ",
        "µ"
      ],
      [
        "Ġ",
        "ÑĢ"
      ],
      [
        "ĠÐ¾",
        "Ð½"
      ],
      [
        "Ð°Ð",
        "º"
      ],
      [
        "Ð°Ð",
        "·"
      ],
      [
        "Ð¾Ð",
        "´"
      ],
      [
        "ĠÐ",
        "·"
      ],
      [
        "Ð",
        "±"
      ],
      [
        "Ġ",
        "Ñĥ"
      ],
      [
        "Ð°",
        "Ð½"
      ],
      [
        "Ġ",
        "Ñ"
      ],
      [
        "Ð",
        "¶"
      ],
      [
        "ĠÐ¿",
        "Ð¾"
      ],
      [
        "ÐµÐ",
        "¼"
      ],
      [
        "ĠÐ±",
        "Ñĭ"
      ],
      [
        "ĠÐ",
        "³"
      ],
      [
        "Ð°Ð",
        "²"
      ],
      [
        "Ðµ",
        "ÑĤ"
      ],
      [
        "Ð¾",
        "ÑĢ"
      ],
      [
        "Ñģ",
        "Ðº"
      ],
      [
        "Ñģ",
        "Ñı"
      ],
      [
        "Ð¸",
        "Ð½"
      ],
      [
        "ĠÑĩ",
        "ÑĤÐ¾"
      ],
      [
        "Ð",
        "³"
      ],
      [
        "Ñģ",
        "ÑĮ"
      ],
      [
        "Ð¾",
        "Ð¸"
      ],
      [
        "Ð°Ð",
        "¼"
      ],
      [
        "Ñ",
        "Ĩ"
      ],
      [
        "ĠÐ",
        "»"
      ],
      [
        "ÐµÐ½",
        "Ð¸"
      ],
      [
        "Ð½",
        "Ñĭ"
      ],
      [
        "ÐµÐ",
        "´"
      ],
      [
        "ÑĢ",
        "Ð°"
      ],
      [
        "Ġ",
        "âĢĵ"
      ],
      [
        "ĠÑ",
        "į"
      ],
      [
        "Ñ",
        "ī"
      ],
      [
        "Ð¸",
        "Ð²"
      ],
      [
        "Ð¾Ð",
        "³Ð¾"
      ],
      [
        "Ð°",
        "ÑĢ"
      ],
      [
        "ĠÐ",
        "°"
      ],
      [
        "ĠÐ¾",
        "ÑĤ"
      ],
      [
        "Ð¸",
        "Ð¼"
      ],
      [
        "ĠÐ±Ñĭ",
        "Ð»"
      ],
      [
        "Ġ",
        "ÑĤÐ¾"
      ],
      [
        "Ð°",
        "Ñı"
      ],
      [
        "Ð¾Ð",
        "³"
      ],
      [
        "Ðµ",
        "Ð¸"
      ],
      [
        "ÑĤÐ¾",
        "ÑĢ"
      ],
      [
        "Ð¸",
        "ÑĤ"
      ],
      [
        "Ð",
        "³Ð¾"
      ],
      [
        "Ð¾Ð",
        "±"
      ],
      [
        "ĠÐ",
        "¶"
      ],
      [
        "ĠÐ²",
        "Ñģ"
      ],
      [
        "Ð¾",
        "ÑĤ"
      ],
      [
        "ÑģÑĤ",
        "Ð²"
      ],
      [
        "Ð½",
        "Ñı"
      ],
      [
        "Ð¸",
        "Ðº"
      ],
      [
        "Ð°",
        "ÑĤÑĮ"
      ],
      [
        "Ð°Ð",
        "´"
      ],
      [
        "Ð½",
        "Ð°"
      ],
      [
        "ĠÐº",
        "Ð°Ðº"
      ],
      [
        "ĠÑģ",
        "Ð²"
      ],
      [
        "ĠÐº",
        "Ð¾"
      ],
      [
        "Ð´",
        "Ð°"
      ],
      [
        "ÑĢ",
        "Ñĥ"
      ],
      [
        "Ð¸",
        "Ð¸"
      ],
      [
        "ĠÐ²",
        "Ñĭ"
      ],
      [
        "ĠÑģ",
        "Ðº"
      ],
      [
        "Ð¾",
        "Ñģ"
      ],
      [
        "Ð¾Ð",
        "¶"
      ],
      [
        "Ð°Ð»",
        "Ð°"
      ],
      [
        "Ð°",
        "Ñģ"
      ],
      [
        "Ð¸",
        "Ð´"
      ],
      [
        "Ð»",
        "Ñı"
      ],
      [
        "Ð»",
        "Ð¸"
      ],
      [
        "ĠÐµ",
        "Ð³Ð¾"
      ],
      [
        "ÐµÐ",
        "²"
      ],
      [
        "ÐµÐ",
        "³Ð¾"
      ],
      [
        "Ð½",
        "Ñĥ"
      ],
      [
        "Ð¸",
        "Ðµ"
      ],
      [
        "ĠÑģ",
        "ÑĤ"
      ],
      [
        "ĠÐ",
        "³Ð¾"
      ],
      [
        "Ð¾Ð",
        "º"
      ],
      [
        "ĠÐ¾",
        "Ð±"
      ],
      [
        "Ð¸",
        "Ñħ"
      ],
      [
        "ĠÐºÐ¾",
        "ÑĤÐ¾ÑĢ"
      ],
      [
        "Ðº",
        "Ð¾"
      ],
      [
        "ĠÐ¿",
        "Ð¾Ð´"
      ],
      [
        "Ġ",
        "Ñı"
      ],
      [
        "ĠÑį",
        "ÑĤÐ¾"
      ],
      [
        "ĠÐ²Ñģ",
        "Ðµ"
      ],
      [
        "Ð°Ð»",
        "Ð¸"
      ],
      [
        "Ð¾",
        "ÑģÑĤ"
      ],
      [
        "ĠÑģÐº",
        "Ð°Ð·"
      ],
      [
        "ÐµÐ",
        "·"
      ],
      [
        "Ð¾Ð²",
        "Ð¾ÑĢ"
      ],
      [
        "Ð°Ð",
        "¶"
      ],
      [
        "ĠÐº",
        "Ð½Ñı"
      ],
      [
        "ĠÐ¸",
        "Ð·"
      ],
      [
        "Ñĥ",
        "Ð´"
      ],
      [
        "ÐµÐ",
        "±"
      ],
      [
        "ĠÐ¿ÑĢ",
        "Ð¸"
      ],
      [
        "ĠÑģ",
        "Ð»"
      ],
      [
        "ĠÐ½",
        "Ð¾"
      ],
      [
        "ÐµÐ»",
        "ÑĮ"
      ],
      [
        "Ð°",
        "ÑĤ"
      ],
      [
        "ĠÑĤ",
        "Ð°Ðº"
      ],
      [
        "Ð¸",
        "ÑĤÑĮ"
      ],
      [
        "Ð¸",
        "ÑĨ"
      ],
      [
        "Ġ",
        "Ñħ"
      ],
      [
        "Ð¾",
        "Ð½"
      ],
      [
        "ĠÑį",
        "ÑĤ"
      ],
      [
        "Ñģ",
        "Ð»"
      ],
      [
        "Ðµ",
        "ÑģÑĤ"
      ],
      [
        "ĠÐ¾Ð½",
        "Ð°"
      ],
      [
        "Ð¸",
        "Ñĩ"
      ],
      [
        "ÐµÐ",
        "º"
      ],
      [
        "Ñ",
        "Ħ"
      ],
      [
        "Ð¸",
        "Ñı"
      ],
      [
        "ĠÐ¿",
        "ÐµÑĢ"
      ],
      [
        "Ð¾Ð»",
        "ÑĮ"
      ],
      [
        "ĠÐ·",
        "Ð°"
      ],
      [
        "Ñĥ",
        "ÑĤ"
      ],
      [
        "ÐµÐ",
        "¿"
      ],
      [
        "ĠÑĢ",
        "Ð°Ð·"
      ],
      [
        "ĠÐ±ÑĭÐ»",
        "Ð¾"
      ],
      [
        "Ð»",
        "ÑĮ"
      ],
      [
        "Ð°Ð¼",
        "Ð¸"
      ],
      [
        "Ñĭ",
        "Ð²"
      ],
      [
        "Ð¾Ð",
        "·"
      ],
      [
        "Ðµ",
        "Ñĩ"
      ],
      [
        "Ð°Ð",
        "¿"
      ],
      [
        "Ð»",
        "Ð°"
      ],
      [
        "ÐµÐ",
        "¶"
      ],
      [
        "Ðµ",
        "Ñģ"
      ],
      [
        "Ñĭ",
        "Ð¸"
      ],
      [
        "ÑĮ",
        "ÐµÑĢ"
      ],
      [
        "Ð¾",
        "ÑĪ"
      ],
      [
        "Ð¼",
        "Ð¸"
      ],
      [
        "ĠÐ³",
        "Ð¾Ð²Ð¾ÑĢ"
      ],
      [
        "Ð½",
        "Ðµ"
      ],
      [
        "ĠÐ¾",
        "Ð´"
      ],
      [
        "Ð¾",
        "Ðµ"
      ],
      [
        "ĠÐ¿",
        "ÑĮÐµÑĢ"
      ],
      [
        "Ð¾Ð¼",
        "Ñĥ"
      ],
      [
        "ÐµÐ½",
        "Ð½Ð¾"
      ],
      [
        "Ġ",
        "ÑĪ"
      ],
      [
        "ÐµÐ½Ð¸",
        "Ñı"
      ],
      [
        "Ð¼",
        "Ñĥ"
      ],
      [
        "Ð°",
        "ÑĪ"
      ],
      [
        "ÑĢÑĥ",
        "Ð³"
      ],
      [
        "ĠÑ",
        "Ħ"
      ],
      [
        "ĠÑĢ",
        "Ñĥ"
      ],
      [
        "ĠÐ¿",
        "Ð¾Ð»"
      ],
      [
        "ĠÐºÐ½Ñı",
        "Ð·"
      ],
      [
        "ÑģÑĤ",
        "ÑĮ"
      ],
      [
        "ÐµÐ½",
        "ÑĮ"
      ],
      [
        "ĠÑģÐºÐ°Ð·",
        "Ð°Ð»"
      ],
      [
        "Ð¸Ð»",
        "Ð°"
      ],
      [
        "Ð°Ð",
        "³"
      ],
      [
        "Ñĥ",
        "Ð¼"
      ],
      [
        "Ñī",
        "Ðµ"
      ],
      [
        "Ñĥ",
        "Ñİ"
      ],
      [
        "ĠÐ´",
        "Ð²"
      ],
      [
        "ĠÐ»",
        "Ñİ"
      ],
      [
        "Ð¾Ð",
        "¿"
      ],
      [
        "Ð¾Ð³",
        "Ð´Ð°"
      ],
      [
        "ĠÐ¶",
        "Ðµ"
      ],
      [
        "ÐµÐ½Ð¸",
        "Ðµ"
      ],
      [
        "ĠÐ°",
        "Ð½"
      ],
      [
        "ĠÑģ",
        "Ð¿"
      ],
      [
        "Ñĥ",
        "Ð¶"
      ],
      [
        "Ð¸Ð»",
        "Ð¸"
      ],
      [
        "ÑĢ",
        "Ð°Ð½"
      ],
      [
        "Ñĥ",
        "Ð·"
      ],
      [
        "ĠÐµ",
        "Ð¼Ñĥ"
      ],
      [
        "Ðº",
        "Ð°"
      ],
      [
        "Ðµ",
        "ÑĪ"
      ],
      [
        "ĠÐµ",
        "Ðµ"
      ],
      [
        "Ð»ÑĮ",
        "ÐºÐ¾"
      ],
      [
        "Ñħ",
        "Ð¾Ð´"
      ],
      [
        "ĠÑģÐ²",
        "Ð¾"
      ],
      [
        "Ñģ",
        "Ð¿"
      ],
      [
        "âĢ",
        "¦"
      ],
      [
        "Ñĥ",
        "ÑĪ"
      ],
      [
        "Ñĭ",
        "Ðµ"
      ],
      [
        "Ð´",
        "ÑĢ"
      ],
      [
        "ĠÐ²",
        "Ð¸Ð´"
      ],
      [
        "Ġ",
        "d"
      ],
      [
        "Ðº",
        "Ð¸"
      ],
      [
        "ĠÑĤÐ¾",
        "Ð»ÑĮÐºÐ¾"
      ],
      [
        "Ð°Ð",
        "±"
      ],
      [
        "Ð½Ð¾",
        "Ð¸"
      ],
      [
        "ĠÐ³",
        "Ð»"
      ],
      [
        "Ñĭ",
        "Ñħ"
      ],
      [
        "Ñĥ",
        "Ñĩ"
      ],
      [
        "ÐµÐ»",
        "Ð¸"
      ],
      [
        "ÐµÐ½",
        "Ð½Ñĭ"
      ],
      [
        "Ð¾",
        "ÑģÑĮ"
      ],
      [
        "Ð°",
        "Ñİ"
      ],
      [
        "ĠÑģ",
        "Ð¼"
      ],
      [
        "ĠÐ¸",
        "Ð¼"
      ],
      [
        "Ñı",
        "ÑĤ"
      ],
      [
        "ĠÑģ",
        "Ð°Ð¼"
      ],
      [
        "e",
        "s"
      ],
      [
        "ĠÐ½",
        "Ð¸Ðº"
      ],
      [
        "Ð½",
        "Ð¾Ð³Ð¾"
      ],
      [
        "ĠÑģ",
        "ÐµÐ±"
      ],
      [
        "ÐµÐ»",
        "Ð¾Ð²"
      ],
      [
        "Ð½",
        "Ð¸"
      ],
      [
        "ĠÐ´",
        "ÐµÐ»"
      ],
      [
        "Ñĭ",
        "Ð¼"
      ],
      [
        "ĠÐº",
        "ÑĢ"
      ],
      [
        "o",
        "u"
      ],
      [
        "ĠÐ¾",
        "Ð¿"
      ],
      [
        "ÐµÐ",
        "³"
      ],
      [
        "ÑģÑĤ",
        "ÑĢ"
      ],
      [
        "ĠÐ²",
        "Ð¾"
      ],
      [
        "ĠÐ³Ð¾",
        "Ð»"
      ],
      [
        "ĠÑĢ",
        "Ð°Ñģ"
      ],
      [
        "ĠÑģ",
        "ÑĤÐ¾"
      ],
      [
        "ĠÐ±",
        "ÑĥÐ´"
      ],
      [
        "ÑĢ",
        "Ð°Ð¶"
      ],
      [
        "ĠÐºÐ½ÑıÐ·",
        "ÑĮ"
      ],
      [
        "Ðº",
        "Ñĥ"
      ],
      [
        "ÑģÑĤ",
        "Ð¸"
      ],
      [
        "ĠÐ°Ð½",
        "Ð´ÑĢ"
      ],
      [
        "Ð¾Ð±",
        "Ñĭ"
      ],
      [
        "ÑģÑĤ",
        "Ð°Ð²"
      ],
      [
        "ÑĢÐ°",
        "ÑĦ"
      ],
      [
        "ĠÐ²",
        "Ð·"
      ],
      [
        "ĠÐ´",
        "Ð»Ñı"
      ],
      [
        "ĠÐ»",
        "Ð¸ÑĨ"
      ],
      [
        "ĠÐ½",
        "Ð°Ð¿"
      ],
      [
        "ÐµÑĢ",
        "ÑĮ"
      ],
      [
        "Ð°",
        "Ñħ"
      ],
      [
        "Ð¸",
        "Ð·"
      ],
      [
        "Ġ",
        "l"
      ],
      [
        "ĠÐ½Ð°",
        "ÑĤ"
      ],
      [
        "ĠÐ´",
        "Ð¾Ð»"
      ],
      [
        "ĠÐ¿ÑĢ",
        "ÐµÐ´"
      ],
      [
        "Ġ",
        "m"
      ],
      [
        "e",
        "n"
      ],
      [
        "ĠÐ¿Ð¾",
        "ÑģÐ»"
      ],
      [
        "ĠÐ³",
        "ÑĢÐ°ÑĦ"
      ],
      [
        "Ð¸",
        "Ñģ"
      ],
      [
        "Ð¾",
        "Ñĩ"
      ],
      [
        "ĠÐ´",
        "ÑĢÑĥÐ³"
      ],
      [
        "ÑĢ",
        "ÐµÐ¼"
      ],
      [
        "ĠÐ½Ð°ÑĤ",
        "Ð°ÑĪ"
      ],
      [
        "Ðµ",
        "Ñħ"
      ],
      [
        "Ð°",
        "ÐµÑĤ"
      ],
      [
        "Ð´",
        "Ðµ"
      ],
      [
        "Ñĥ",
        "Ð¿"
      ],
      [
        "ĠÑģÐ²",
        "Ð¾Ð¸"
      ],
      [
        "Ð¾ÑĤ",
        "ÑĢ"
      ],
      [
        "Ð°Ð²",
        "ÑĪ"
      ],
      [
        "Ñĥ",
        "Ð²"
      ],
      [
        "Ġ",
        "c"
      ],
      [
        "âĢ",
        "Ļ"
      ],
      [
        "ĠÐ¿Ð¾",
        "ÑĤ"
      ],
      [
        "r",
        "e"
      ],
      [
        "Ð°Ð»",
        "ÑĮ"
      ],
      [
        "Ġ",
        "p"
      ],
      [
        "Ð¾Ð²",
        "Ð°"
      ],
      [
        "ÑĢ",
        "Ð¾Ñģ"
      ],
      [
        "ĠÑĩ",
        "ÑĤ"
      ],
      [
        "Ð¸ÑĤ",
        "ÐµÐ»ÑĮ"
      ],
      [
        "ĠÑĥ",
        "Ð¶"
      ],
      [
        "ĠÑĩ",
        "ÐµÐ»Ð¾Ð²"
      ],
      [
        "Ðµ",
        "Ðµ"
      ],
      [
        "Ð¸Ð»",
        "ÑģÑı"
      ],
      [
        "ĠÐµ",
        "ÑīÐµ"
      ],
      [
        "ĠÐº",
        "Ð¾Ð³Ð´Ð°"
      ],
      [
        "Ð½Ð¾",
        "Ðµ"
      ],
      [
        "Ñĥ",
        "ÑĢ"
      ],
      [
        "ĠÐ¼",
        "Ð¾Ð³"
      ],
      [
        "ÑĢÐ°Ð½",
        "ÑĨ"
      ],
      [
        "Ð°ÑĢ",
        "ÑĮ"
      ],
      [
        "o",
        "n"
      ],
      [
        "Â",
        "«"
      ],
      [
        "Ð½Ñĥ",
        "Ð»"
      ],
      [
        "Â",
        "»"
      ],
      [
        "Ð°Ð»",
        "ÑģÑı"
      ],
      [
        "ĠÐ¿",
        "Ð»"
      ],
      [
        "Ġ",
        "Â«"
      ],
      [
        "ĠÐ½",
        "Ð°Ð´"
      ],
      [
        "ÑĢ",
        "Ð°Ð²"
      ],
      [
        "Ð½Ñĭ",
        "Ð¼"
      ],
      [
        "ĠÐ·",
        "Ð½"
      ],
      [
        "ÑĢÐ°",
        "ÑĤ"
      ],
      [
        "Ñı",
        "ÑĤÑĮ"
      ],
      [
        "Ð½Ñĭ",
        "Ð¸"
      ],
      [
        "ÑĥÐ²",
        "ÑģÑĤÐ²"
      ],
      [
        "ĠÑĦ",
        "ÑĢÐ°Ð½ÑĨ"
      ],
      [
        "ÐµÐ¼",
        "Ñĥ"
      ],
      [
        "ĠÑĢ",
        "Ð¾ÑģÑĤ"
      ],
      [
        "ĠÑģ",
        "Ð¾"
      ],
      [
        "ĠÐ¼",
        "Ð¾"
      ],
      [
        "ĠÐ±",
        "Ð¾Ð»ÑĮ"
      ],
      [
        "ĠÐ¿",
        "Ð¾Ðº"
      ],
      [
        "Ñĩ",
        "Ð°"
      ],
      [
        "Ð½",
        "Ð¸Ð¼"
      ],
      [
        "ĠÐ½",
        "Ð¸"
      ],
      [
        "ĠÑĩÐµÐ»Ð¾Ð²",
        "ÐµÐº"
      ],
      [
        "Ð½",
        "Ð¸Ðº"
      ],
      [
        "Ñ",
        "Ĭ"
      ],
      [
        "ĠÑĤ",
        "ÐµÐ¿"
      ],
      [
        "ĠÐ²",
        "ÑĢÐµÐ¼"
      ],
      [
        "ĠÐ»Ñİ",
        "Ð´"
      ],
      [
        "ĠÐ¾ÑĤ",
        "Ð²"
      ],
      [
        "ĠÑĤ",
        "Ñĭ"
      ],
      [
        "ÐµÐ½Ð¸",
        "Ð¸"
      ],
      [
        "ĠÑĩÑĤ",
        "Ð¾Ð±Ñĭ"
      ],
      [
        "Ð¸",
        "ÑģÑĮ"
      ],
      [
        "ĠÐ¼",
        "Ñĭ"
      ],
      [
        "ĠÑĦÑĢÐ°Ð½ÑĨ",
        "ÑĥÐ·"
      ],
      [
        "ĠÐ¼",
        "Ð¾Ð»"
      ],
      [
        "ĠÑĤ",
        "ÑĢ"
      ],
      [
        "ĠÐ»Ñİ",
        "Ð±"
      ],
      [
        "ĠÑģÑĤ",
        "Ð°ÑĢ"
      ],
      [
        "Ð¸ÑĤ",
        "Ðµ"
      ],
      [
        "Ð¸Ð²",
        "ÑĪ"
      ],
      [
        "Ð´",
        "ÐµÐ»"
      ],
      [
        "ĠÐ¾Ð½",
        "Ð¸"
      ],
      [
        "ĠÑ",
        "Ĩ"
      ],
      [
        "ĠÐ·",
        "Ð½Ð°"
      ],
      [
        "Ð°",
        "Ð¸"
      ],
      [
        "ÑĪ",
        "Ðµ"
      ],
      [
        "Ð³",
        "Ð»Ñı"
      ],
      [
        "ĠÑĤ",
        "Ð¾Ð³Ð¾"
      ],
      [
        "ĠÐºÐ½Ñı",
        "Ð¶"
      ],
      [
        "Ġ",
        "a"
      ],
      [
        "ĠÐ½",
        "ÐµÐ³Ð¾"
      ],
      [
        "Ð½Ñĭ",
        "Ðµ"
      ],
      [
        "ĠÐ±ÑĭÐ»",
        "Ð°"
      ],
      [
        "ĠÐ³Ð»",
        "Ð°Ð·"
      ],
      [
        "ĠÐ±ÑĭÐ»",
        "Ð¸"
      ],
      [
        "ĠÐ¾",
        "Ñĩ"
      ],
      [
        "ĠÑĤÐµÐ¿",
        "ÐµÑĢÑĮ"
      ],
      [
        "ĠÐ°Ð½Ð´ÑĢ",
        "ÐµÐ¸"
      ],
      [
        "Ñĭ",
        "ÑĪ"
      ],
      [
        "ĠÑģ",
        "Ð¾Ð²"
      ],
      [
        "Ð¸Ð¼",
        "Ð¸"
      ],
      [
        "Ð°Ñı",
        "ÑģÑĮ"
      ],
      [
        "ĠÑĩ",
        "ÑĥÐ²ÑģÑĤÐ²"
      ],
      [
        "e",
        "r"
      ],
      [
        "Ñģ",
        "Ð¼"
      ],
      [
        "ĠÑĥ",
        "Ð»"
      ],
      [
        "ĠÑĢÐ¾ÑģÑĤ",
        "Ð¾Ð²"
      ],
      [
        "ÐµÐ»",
        "Ð°"
      ],
      [
        "Ð°Ð»",
        "Ð¾ÑģÑĮ"
      ],
      [
        "Ðº",
        "Ð¾Ð¸"
      ],
      [
        "Ð°Ð·",
        "ÑĭÐ²"
      ],
      [
        "Ġ",
        "v"
      ],
      [
        "Ġ",
        "s"
      ],
      [
        "Ðµ",
        "ÑģÐº"
      ],
      [
        "ĠÐ´",
        "ÑĥÐ¼"
      ],
      [
        "ĠÑģÐµÐ±",
        "Ñı"
      ],
      [
        "Ð°Ð»Ð¸",
        "ÑģÑĮ"
      ],
      [
        "ĠÐ²",
        "ÐµÑĢ"
      ],
      [
        "ĠÐº",
        "Ð¾Ð¼"
      ],
      [
        "ĠÐ±",
        "Ð¾Ð»"
      ],
      [
        "a",
        "i"
      ],
      [
        "ĠÐ¼",
        "Ð¾Ð¶"
      ],
      [
        "ÑĤ",
        "Ð¸"
      ],
      [
        "ĠÐ´",
        "Ð¾"
      ],
      [
        "ĠÐ¼",
        "Ð°ÑĢÑĮ"
      ],
      [
        "ÑģÑĤÐ²",
        "Ð¾"
      ],
      [
        "ÑĢ",
        "Ð¾Ð´"
      ],
      [
        "Ð¿",
        "ÐµÑĢ"
      ],
      [
        "ĠÑįÑĤ",
        "Ð¾Ð³Ð¾"
      ],
      [
        "ĠÐ½Ð°ÑĤÐ°ÑĪ",
        "Ð°"
      ],
      [
        "ĠÐ²",
        "Ð¾Ð·"
      ],
      [
        "Ñı",
        "Ð»"
      ],
      [
        "ĠÐ¸",
        "Ñħ"
      ],
      [
        "Ñĥ",
        "Ð±"
      ],
      [
        "ĠÑĤ",
        "Ð¾Ð¼"
      ],
      [
        "Ġd",
        "e"
      ],
      [
        "ĠÐ¸",
        "Ð»Ð¸"
      ],
      [
        "ĠÐ±Ñĭ",
        "ÑĤÑĮ"
      ],
      [
        "ĠÐ¼",
        "Ð½Ðµ"
      ],
      [
        "Ñĭ",
        "Ð±"
      ],
      [
        "ÑĢÐ°",
        "Ñģ"
      ],
      [
        "ĠÐ¾",
        "Ñģ"
      ],
      [
        "Ġ",
        "("
      ],
      [
        "ĠÐ¾",
        "ÑģÑĤ"
      ],
      [
        "ĠÑĥÐ»",
        "ÑĭÐ±"
      ],
      [
        "Ñĥ",
        "Ñħ"
      ],
      [
        "Ð°Ð½",
        "Ð¸Ñı"
      ],
      [
        "ĠÑħ",
        "Ð¾ÑĤ"
      ],
      [
        "ÐµÐ½",
        "Ñı"
      ],
      [
        "ĠÑĤ",
        "ÐµÐ¼"
      ],
      [
        "ĠÑĥÐ¶",
        "Ðµ"
      ],
      [
        "ĠÑģ",
        "Ð¾Ð»"
      ],
      [
        "q",
        "u"
      ],
      [
        "ĠÐ½",
        "ÐµÐ¿"
      ],
      [
        "Ð½Ð¾",
        "ÑģÑĤÑĮ"
      ],
      [
        "Ð¾",
        "Ñħ"
      ],
      [
        "Ð½Ñĭ",
        "Ñħ"
      ],
      [
        "ĠÑģ",
        "Ð¾Ð±"
      ],
      [
        "ĠÐ°",
        "ÑĢ"
      ],
      [
        "ĠÐ½Ð°",
        "Ñĩ"
      ],
      [
        "ĠÑĥ",
        "Ð²"
      ],
      [
        "ĠÐ±",
        "Ð»"
      ],
      [
        "ĠÐ¼Ð¾",
        "ÑģÐº"
      ],
      [
        "ĠÐ²ÑĢÐµÐ¼",
        "Ñı"
      ],
      [
        "Ð»",
        "Ð¸Ð²"
      ],
      [
        "Ð¸",
        "ÑĢ"
      ],
      [
        "ĠÑģ",
        "Ð´ÐµÐ»"
      ],
      [
        "ĠÑģÐºÐ°Ð·",
        "Ð°Ð»Ð°"
      ],
      [
        "Ðµ",
        "ÑĤÑĮ"
      ],
      [
        "Ñģ",
        "ÑĥÐ´"
      ],
      [
        "ĠÑĥ",
        "Ð´"
      ],
      [
        "ĠÐ¿ÐµÑĢ",
        "ÐµÐ´"
      ],
      [
        "ÑĤ",
        "Ñĭ"
      ],
      [
        "ĠÐ³Ð¾Ð²Ð¾ÑĢ",
        "Ð¸Ð»"
      ],
      [
        "Ð½",
        "Ð¾Ð²"
      ],
      [
        "ĠÐ±",
        "ÐµÐ·"
      ],
      [
        "ĠÐ´",
        "ÑĢÑĥ"
      ],
      [
        "ĠÐ¸",
        "ÑģÐ¿"
      ],
      [
        "Ð°Ð½",
        "Ð¾Ð²"
      ],
      [
        "e",
        "t"
      ],
      [
        "ĠÐ½",
        "Ð¸Ñĩ"
      ],
      [
        "ĠÐ¿ÑĢ",
        "Ð¾"
      ],
      [
        "Ð¸",
        "Ð¶"
      ],
      [
        "Ñı",
        "Ð½"
      ],
      [
        "Ð°Ð»",
        "Ð¾"
      ],
      [
        "ĠÐºÐ¾ÑĤÐ¾ÑĢ",
        "ÑĭÐµ"
      ],
      [
        "ÑĦ",
        "Ð¸ÑĨ"
      ],
      [
        "ĠÐ»",
        "Ð¸"
      ],
      [
        "Ð½",
        "Ð°Ñı"
      ],
      [
        "ĠÐº",
        "Ð°Ð·"
      ],
      [
        "ĠÑģÐµÐ±",
        "Ðµ"
      ],
      [
        "ĠÐ³Ð¾",
        "ÑģÑĥÐ´"
      ],
      [
        "ĠÐ·",
        "Ð°Ð¼"
      ],
      [
        "Ð¸Ð½",
        "Ð°"
      ],
      [
        "Ð¾Ð»",
        "Ðµ"
      ],
      [
        "ÑģÑĤ",
        "ÑĥÐ¿"
      ],
      [
        "ĠÐ²",
        "Ð°Ñģ"
      ],
      [
        "n",
        "e"
      ],
      [
        "Ð»",
        "Ñİ"
      ],
      [
        "ĠÐ½Ð¸Ðº",
        "Ð¾Ð»"
      ],
      [
        "Ð½",
        "Ð¾Ð¼"
      ],
      [
        "ÑĢ",
        "Ñĭ"
      ],
      [
        "Ð½Ð¾",
        "ÑģÑĤÐ¸"
      ],
      [
        "Ð°Ð½",
        "Ð¸Ðµ"
      ],
      [
        "ĠÐ¼Ð¾ÑģÐº",
        "Ð²"
      ],
      [
        "ÐµÑĢ",
        "Ð¶"
      ],
      [
        "ĠÐµ",
        "Ð¸"
      ],
      [
        "ĠÐ¶",
        "Ð¸Ð·"
      ],
      [
        "ÑĢ",
        "Ð°Ð·"
      ],
      [
        "ĠÑĩ",
        "ÐµÑĢ"
      ],
      [
        "ĠÑĩ",
        "ÐµÐ¼"
      ],
      [
        "a",
        "n"
      ],
      [
        "Ðº",
        "Ð¾Ð²"
      ],
      [
        "ĠÐ¿",
        "Ð¾Ð²"
      ],
      [
        "ĠÑģÐ¾Ð»",
        "Ð´Ð°"
      ],
      [
        "ÑĦÐ¸ÑĨ",
        "ÐµÑĢ"
      ],
      [
        "ÑĢ",
        "Ñı"
      ],
      [
        "ĠÐºÐ¾ÑĤÐ¾ÑĢ",
        "ÑĭÐ¸"
      ],
      [
        "l",
        "e"
      ],
      [
        "Ñģ",
        "ÑģÐº"
      ],
      [
        "ĠÐ·",
        "Ð°Ðº"
      ],
      [
        "Ð²",
        "ÑĪ"
      ],
      [
        "Ð´",
        "Ñĥ"
      ],
      [
        "ĠÐ¼",
        "ÐµÐ½Ñı"
      ],
      [
        "ĠÐ¾Ð¿",
        "ÑıÑĤÑĮ"
      ],
      [
        "Ñİ",
        "ÑĤ"
      ],
      [
        "Ðº",
        "Ðµ"
      ],
      [
        "ÑģÑĤÐ²",
        "Ð°"
      ],
      [
        "ĠÑįÑĤÐ¾",
        "ÑĤ"
      ],
      [
        "ĠÐ½Ð°Ð¿",
        "Ð¾Ð»Ðµ"
      ],
      [
        "Ð½Ñĥ",
        "Ñİ"
      ],
      [
        "ĠÐ´",
        "Ð¾Ð¼"
      ],
      [
        "Ð¾ÑĢ",
        "Ð¾ÑĪ"
      ],
      [
        "Ð°ÑĤÑĮ",
        "ÑģÑı"
      ],
      [
        "ĠÐ³Ð¾Ð»",
        "Ð¾Ñģ"
      ],
      [
        "ĠÐ¿",
        "ÐµÑĤ"
      ],
      [
        "ĠÐ¿Ð¾",
        "Ñĩ"
      ],
      [
        "ĠÐ¾Ð´",
        "Ð¸Ð½"
      ],
      [
        "ĠÐ´",
        "Ð°"
      ],
      [
        "ĠÐ²",
        "Ð¾Ð¸"
      ],
      [
        "Ġ",
        "qu"
      ],
      [
        "Ð»",
        "Ð¾"
      ],
      [
        "ĠÐº",
        "ÑĥÑĤ"
      ],
      [
        "ÑĪ",
        "ÐµÐ»"
      ],
      [
        "ĠÐ²",
        "Ð´"
      ],
      [
        "ĠÐ²ÑģÐµ",
        "Ñħ"
      ],
      [
        "ĠÐ¶",
        "ÐµÐ½"
      ],
      [
        "ĠÐ¾",
        "ÑĦÐ¸ÑĨÐµÑĢ"
      ],
      [
        "ÑĢÐ°",
        "Ñı"
      ],
      [
        "ĠÐ¸",
        "Ñģ"
      ],
      [
        "ĠÐ´Ð¾Ð»",
        "Ð¶"
      ],
      [
        "Ð¾Ñģ",
        "ÑĤÐ¾"
      ],
      [
        "ou",
        "s"
      ],
      [
        "Ñĥ",
        "ÑģÑĤ"
      ],
      [
        "ÑĤ",
        "Ðµ"
      ],
      [
        "ĠÐºÐ½ÑıÐ¶",
        "Ð½Ð°"
      ],
      [
        "Ð¸Ð½",
        "Ñı"
      ],
      [
        "Ð¸Ð½",
        "Ñĥ"
      ],
      [
        "ĠÐ¿Ð¾ÑĤ",
        "Ð¾Ð¼Ñĥ"
      ],
      [
        "Ð»",
        "ÐµÐ½"
      ],
      [
        "ĠÑģÐ¼",
        "Ð¾ÑĤÑĢ"
      ],
      [
        "ĠÐ³Ð¾Ð»",
        "Ð¾Ð²"
      ],
      [
        "ĠÐºÑĥÑĤ",
        "ÑĥÐ·"
      ],
      [
        "ĠÑĢÑĥ",
        "ÑģÑģÐº"
      ],
      [
        "Ð¾Ð»ÑĮ",
        "ÐºÐ¾"
      ],
      [
        "ĠÐ½Ð¸Ñĩ",
        "ÐµÐ³Ð¾"
      ],
      [
        "ĠÐ²",
        "ÐµÐ»"
      ],
      [
        "Ð¾ÑģÑĤ",
        "Ð¸"
      ],
      [
        "ĠÐº",
        "Ð¾Ð»"
      ],
      [
        "ĠÐµ",
        "ÑģÑĤÑĮ"
      ],
      [
        "Ðµ",
        "ÑĨ"
      ],
      [
        "ĠÑĥ",
        "Ð¼"
      ],
      [
        "ĠÐ¿Ð¾ÑģÐ»",
        "Ðµ"
      ],
      [
        "Ð°Ð»Ð°",
        "ÑģÑĮ"
      ],
      [
        "ÐµÑĢ",
        "Ð´"
      ],
      [
        "Ð¸Ð»Ð°",
        "ÑģÑĮ"
      ],
      [
        "ĠÐ¼",
        "Ð¸Ð½"
      ],
      [
        "ĠÑĢ",
        "Ð°Ð´"
      ],
      [
        "ÑģÐ¼",
        "Ð¾ÑĤÑĢ"
      ],
      [
        "ĠÐ¾",
        "Ðº"
      ],
      [
        "ĠÐ²Ð¾Ð¸",
        "ÑģÐº"
      ],
      [
        "ĠÐ¿ÑĢ",
        "Ð¾Ð¸"
      ],
      [
        "ĠÑģÐ²Ð¾",
        "ÐµÐ¸"
      ],
      [
        "ĠÐ¿ÑĢ",
        "Ð°Ð²"
      ],
      [
        "Ð¸Ð½",
        "Ñĭ"
      ],
      [
        "ĠÐ¿ÐµÑĢ",
        "Ð²"
      ],
      [
        "ĠÐ¾Ñĩ",
        "ÐµÐ½ÑĮ"
      ],
      [
        "ĠÑģ",
        "Ð¸Ð»"
      ],
      [
        "ĠÐ±",
        "Ð¾ÑĢ"
      ],
      [
        "ĠÐ¿",
        "Ð¾Ð¼"
      ],
      [
        "t",
        "e"
      ],
      [
        "ÑĢ",
        "ÐµÐ´"
      ],
      [
        "ÐµÑĤ",
        "Ðµ"
      ],
      [
        "ĠÑħ",
        "Ð¾ÑĢÐ¾ÑĪ"
      ],
      [
        "ÐµÐ½Ð¸",
        "ÐµÐ¼"
      ],
      [
        "ÑĢÐ°",
        "ÑĪ"
      ],
      [
        "ĠÐ´ÑĢÑĥ",
        "Ð³Ð¾"
      ],
      [
        "ĠÐ±Ð¾Ð»ÑĮ",
        "ÑĪ"
      ],
      [
        "ĠÐ²",
        "Ð¾Ð»"
      ],
      [
        "ĠÐ¿ÑĢ",
        "Ð¸Ðº"
      ],
      [
        "ĠÐ±",
        "ÐµÑģ"
      ],
      [
        "ĠÐ¼Ð°ÑĢÑĮ",
        "Ñı"
      ],
      [
        "Ð¾ÑĤ",
        "Ð¸Ð²"
      ],
      [
        "ÑĩÐ°",
        "ÑģÑĤ"
      ],
      [
        "Ð½Ðµ",
        "Ðµ"
      ],
      [
        "ĠÐ²",
        "Ð¾ÑĤ"
      ],
      [
        "Ð¾ÑĪ",
        "Ð°Ð´"
      ],
      [
        "ĠÐ»Ð¸ÑĨ",
        "Ð¾"
      ],
      [
        "ĠÐ²Ð´",
        "ÑĢÑĥÐ³"
      ],
      [
        "ÑģÐº",
        "Ð¸Ð¸"
      ],
      [
        "ĠÐ½Ðµ",
        "ÑĤ"
      ],
      [
        "ĠÐ»",
        "Ð¾ÑĪÐ°Ð´"
      ],
      [
        "ĠÐ²Ð·",
        "Ð³Ð»Ñı"
      ],
      [
        "Ð¸ÑĤÑĮ",
        "ÑģÑı"
      ],
      [
        "Ðµ",
        "Ñı"
      ],
      [
        "Ð¸Ð»Ð¸",
        "ÑģÑĮ"
      ],
      [
        "ĠÐ¾ÑĤÐ²",
        "ÐµÑĩ"
      ],
      [
        "ĠÐ½",
        "Ð¸Ð¼"
      ],
      [
        "ĠÐ¶",
        "ÐµÐ»"
      ],
      [
        "ĠÐ¼",
        "ÑĥÐ¶"
      ],
      [
        "Ð°Ñİ",
        "ÑĤ"
      ],
      [
        "ÐµÑĤ",
        "ÑģÑı"
      ],
      [
        "ĠÐ¿",
        "Ð¾Ð·"
      ],
      [
        "Ð°Ð½",
        "Ð´"
      ],
      [
        "Ġ",
        "b"
      ],
      [
        "ĠÐ½",
        "ÐµÐ²"
      ],
      [
        "ÑĨ",
        "Ð°"
      ],
      [
        "ĠÐ±ÑĥÐ´",
        "ÐµÑĤ"
      ],
      [
        "ĠÐ±ÑĥÐ´",
        "ÑĤÐ¾"
      ],
      [
        "Ð¸",
        "Ð³"
      ],
      [
        "ĠÑĤÐ¾",
        "Ð»"
      ],
      [
        "ĠÐ¼Ð¾Ð»",
        "Ð¾Ð´"
      ],
      [
        "ĠÐ¿ÑĢ",
        "ÐµÐ¶"
      ],
      [
        "ĠÐ¿ÑĮÐµÑĢ",
        "Ð°"
      ],
      [
        "Ñı",
        "Ñī"
      ],
      [
        "ĠÐ±",
        "Ð¾Ð³"
      ],
      [
        "ĠÑĤÐ¾",
        "ÑĤ"
      ],
      [
        "Ð¸ÑĤÐµÐ»ÑĮ",
        "Ð½Ð¾"
      ],
      [
        "ÐµÑĢ",
        "Ð¸"
      ],
      [
        "r",
        "i"
      ],
      [
        "Ðµ",
        "Ñī"
      ],
      [
        "ĠÐ²Ñĭ",
        "ÑĢÐ°Ð¶"
      ],
      [
        "Ġ",
        "f"
      ],
      [
        "ĠÐ¼Ð¾Ð¶",
        "ÐµÑĤ"
      ],
      [
        "ĠÐ³",
        "ÐµÐ½"
      ],
      [
        "Ð¸Ð¼",
        "Ð¾"
      ],
      [
        "Ð°Ñİ",
        "Ñī"
      ],
      [
        "ĠÐ²",
        "Ð°ÑĪ"
      ],
      [
        "ĠÐ»ÑİÐ´",
        "ÐµÐ¸"
      ],
      [
        "Ġ",
        "1"
      ],
      [
        "ĠÑģ",
        "ÑĤÐ¾ÑĢ"
      ],
      [
        "ĠÐ´",
        "Ð¾ÑĢ"
      ],
      [
        "ÑģÐº",
        "Ð¾Ð³Ð¾"
      ],
      [
        "ĠÐ¸Ñģ",
        "ÑĤÐ¾ÑĢ"
      ],
      [
        "Ð¸",
        "ÑĪ"
      ],
      [
        "ĠÐ½Ð°Ð´",
        "Ð¾"
      ],
      [
        "ĠÑģÐ¾Ð»Ð´Ð°",
        "ÑĤ"
      ],
      [
        "ÐµÐ½Ð¸",
        "Ñģ"
      ],
      [
        "ĠÐ½Ðµ",
        "ÑģÐº"
      ],
      [
        "Ð¾ÑģÑĤ",
        "ÑĮ"
      ],
      [
        "ÐµÑĢ",
        "ÑĪ"
      ],
      [
        "ĠÐµ",
        "Ð¶"
      ],
      [
        "Ð¿",
        "ÑĢ"
      ],
      [
        "Ð¾ÑĪ",
        "ÐµÐ»"
      ],
      [
        "ĠÐ¼Ð¸Ð½",
        "ÑĥÑĤ"
      ],
      [
        "ĠÑĥ",
        "Ð±"
      ],
      [
        "Ñĭ",
        "Ð¼Ð¸"
      ],
      [
        "ĠÐ¸Ð·",
        "Ð²"
      ],
      [
        "ĠÐºÐ¾Ð¼",
        "Ð½Ð°"
      ],
      [
        "Ñĥ",
        "Ñģ"
      ],
      [
        "ĠÐ¿ÑĢ",
        "Ð¾Ð´"
      ],
      [
        "ĠÐ½",
        "ÐµÐ¼"
      ],
      [
        "Ð¸Ñĩ",
        "ÐµÑģÐº"
      ],
      [
        "Ð¾Ð¿",
        "ÑĢÐ¾Ñģ"
      ],
      [
        "Ð¾",
        "Ñİ"
      ],
      [
        "ĠÐ½Ð°",
        "ÑĪ"
      ],
      [
        "ĠÐº",
        "ÑĢÐ°Ñģ"
      ],
      [
        "ĠÑĢ",
        "Ð°"
      ],
      [
        "ĠÐº",
        "Ð°Ð¶"
      ],
      [
        "ĠÐ½Ðµ",
        "Ð¸"
      ],
      [
        "ĠÐ²",
        "Ð¾Ñģ"
      ],
      [
        "ĠÐ¿ÑĢ",
        "Ð¸Ð½"
      ],
      [
        "ÐµÐ¸",
        "ÑģÑĤÐ²"
      ],
      [
        "ĠÑģÑĤ",
        "ÑĢ"
      ],
      [
        "ĠÐ´",
        "ÐµÐ½Ð¸Ñģ"
      ],
      [
        "ĠÑįÑĤ",
        "Ð¸"
      ],
      [
        "ĠÐ·",
        "Ð²"
      ],
      [
        "ĠÐ¿ÑĢÐµÐ´",
        "ÑģÑĤÐ°Ð²"
      ],
      [
        "Ð½ÑĥÐ»",
        "ÑģÑı"
      ],
      [
        "ÐµÐ»",
        "Ð¾"
      ],
      [
        "ÐµÐ³",
        "Ð´Ð°"
      ],
      [
        "ÑĢÑĥ",
        "Ð´"
      ],
      [
        "Ġ",
        "n"
      ],
      [
        "ĠÑģ",
        "ÑĢÐ°Ð¶"
      ],
      [
        "Ð¾",
        "Ð½Ð°"
      ],
      [
        "ĠÐ·",
        "Ð°Ð²"
      ],
      [
        "ĠÐ¿Ð¾",
        "Ð½Ñı"
      ],
      [
        "ĠÐµÐ¶",
        "ÐµÐ»Ð¸"
      ],
      [
        "ĠÐ½",
        "Ð¾Ð²"
      ],
      [
        "ĠÐ´",
        "ÐµÐ½ÑĮ"
      ],
      [
        "Ð¸Ñı",
        "ÑĤ"
      ],
      [
        "ĠÐºÐ½ÑıÐ·",
        "Ñı"
      ],
      [
        "ĠÐ³ÐµÐ½",
        "ÐµÑĢ"
      ],
      [
        "ĠÑģÐ¾Ð²",
        "ÐµÑĢÑĪ"
      ],
      [
        "ĠÐ½ÐµÐ¿",
        "ÑĢ"
      ],
      [
        "ĠÐ¾Ñģ",
        "Ð¾Ð±"
      ],
      [
        "ĠÐ±Ð¾Ð»",
        "ÐµÐµ"
      ],
      [
        "ĠÑģÐ»",
        "ÑĭÑĪ"
      ],
      [
        "ĠÑĢÐ°Ð·",
        "Ð³"
      ],
      [
        "ĠÐ³Ð¾ÑģÑĥÐ´",
        "Ð°ÑĢ"
      ],
      [
        "ĠÐ½",
        "Ð°Ð·"
      ],
      [
        "ĠÐ¿Ð¾",
        "Ð½Ð¸Ð¼"
      ],
      [
        "ĠÐ³Ð»Ð°Ð·",
        "Ð°"
      ],
      [
        "ĠÑģ",
        "Ð¸Ð´"
      ],
      [
        "Ðº",
        "Ð¾Ð¼"
      ],
      [
        "Ġ",
        "t"
      ],
      [
        "ĠÐºÐ¾",
        "Ð½"
      ],
      [
        "ĠÑģÐ¿",
        "ÑĢÐ¾Ñģ"
      ],
      [
        "ÑĢ",
        "Ð¾Ð¼"
      ],
      [
        "ÑĥÐ´",
        "ÑĮ"
      ],
      [
        "ÐµÑĪ",
        "ÑĮ"
      ],
      [
        "ĠÐ¼",
        "Ð¾Ð¸"
      ],
      [
        "Ð°Ð½",
        "ÑĤ"
      ],
      [
        "Ð½Ñĭ",
        "Ð¼Ð¸"
      ],
      [
        "Ð¸Ð½",
        "Ðµ"
      ],
      [
        "ĠÑģÐ²Ð¾",
        "ÐµÐ³Ð¾"
      ],
      [
        "ĠÐºÑĥÑĤÑĥÐ·",
        "Ð¾Ð²"
      ],
      [
        "ĠÐ¾",
        "Ð¶"
      ],
      [
        "Ð¾Ð²",
        "Ð°Ð»"
      ],
      [
        "ĠÐ½Ð°",
        "Ñģ"
      ],
      [
        "ĠÐ³",
        "Ð´Ðµ"
      ],
      [
        "ĠÐ¿ÑĢ",
        "Ð¸Ð²"
      ],
      [
        "ĠÐ·",
        "Ð°Ð¿"
      ],
      [
        "Ġ",
        "j"
      ],
      [
        "Ñı",
        "Ð·"
      ],
      [
        "ĠÑĤ",
        "ÐµÐ±"
      ],
      [
        "ĠÐ¾ÑĤ",
        "Ðº"
      ],
      [
        "Ñı",
        "Ð´"
      ],
      [
        "ĠÐ¾ÑģÑĤ",
        "Ð°Ð½Ð¾Ð²"
      ],
      [
        "Ñĭ",
        "ÑĤ"
      ],
      [
        "ĠÑĢÐ°Ñģ",
        "ÑģÐº"
      ],
      [
        "ĠÐ´ÑĢÑĥÐ³Ð¾",
        "Ð¸"
      ],
      [
        "Ð·",
        "Ð½"
      ],
      [
        "Ð¾Ð¶",
        "Ðµ"
      ],
      [
        "ÐµÑģÑĤ",
        "Ðµ"
      ],
      [
        "ĠÐ¿Ð¾Ð»",
        "Ð¾Ð¶"
      ],
      [
        "ĠÐ´ÐµÐ»",
        "Ð¾"
      ],
      [
        "Ð¸Ð²",
        "Ð°Ñı"
      ],
      [
        "o",
        "i"
      ],
      [
        "ĠÑģÐ²Ð¾",
        "Ñİ"
      ],
      [
        "Ð»Ð°",
        "ÑģÑĮ"
      ],
      [
        "ĠÐº",
        "ÑĤÐ¾"
      ],
      [
        "ĠÐ²Ñģ",
        "ÐµÐ³Ð´Ð°"
      ],
      [
        "Ġ",
        "et"
      ],
      [
        "ĠÐ½ÐµÑģÐº",
        "Ð¾Ð»ÑĮÐºÐ¾"
      ],
      [
        "Ñĥ",
        "Ð³"
      ],
      [
        "ĠÐ²",
        "Ð¿ÐµÑĢ"
      ],
      [
        "ĠÐ¾",
        "ÑģÑĤÐ°Ð²"
      ],
      [
        "Ð¿",
        "Ð¾Ð»"
      ],
      [
        "ĠÐ²Ñĭ",
        "Ñģ"
      ],
      [
        "ĠÐ²Ð¿ÐµÑĢ",
        "ÐµÐ´"
      ],
      [
        "Ð¾Ð»",
        "Ð¶"
      ],
      [
        "ĠÐ¶Ð¸Ð·",
        "Ð½Ð¸"
      ],
      [
        "Ðµ",
        "Ñİ"
      ],
      [
        "ĠÐ²",
        "ÐµÑģ"
      ],
      [
        "ĠÐ²",
        "Ð¾Ð¿ÑĢÐ¾Ñģ"
      ],
      [
        "ĠÐ¿Ð¾",
        "Ñģ"
      ],
      [
        "ĠÐ³Ð»",
        "Ð°Ð²"
      ],
      [
        "ĠÐ°ÑĢ",
        "Ð¼"
      ],
      [
        "ĠÐ½Ð¸ÐºÐ¾Ð»",
        "Ð°Ð¸"
      ],
      [
        "Ð¸",
        "Ñİ"
      ],
      [
        "ĠÐ²",
        "ÑģÑı"
      ],
      [
        "ĠÐ´Ð²",
        "Ð¸Ð¶"
      ],
      [
        "ĠÐ¼",
        "Ð°Ð»"
      ],
      [
        "ÐµÐ¶",
        "Ð´Ñĥ"
      ],
      [
        "ĠÐ½",
        "ÑĥÐ¶"
      ],
      [
        "ĠÑĩ",
        "Ð°Ñģ"
      ],
      [
        "Ð°",
        "ÐµÐ¼"
      ],
      [
        "Ð¸",
        "ÑģÑĤ"
      ],
      [
        "Ð¸Ð»",
        "Ð¾"
      ],
      [
        "ÐµÐ½Ð½Ñĭ",
        "Ð¸"
      ],
      [
        "ĠÐ½",
        "ÐµÐ´"
      ],
      [
        "Ñĥ",
        "Ð´Ð°"
      ],
      [
        "ĠÐ´",
        "Ð°Ð²"
      ],
      [
        "ĠÐ¿Ð¾ÑģÐ»",
        "ÐµÐ´"
      ],
      [
        "Ñı",
        "Ð¶"
      ],
      [
        "ĠÐº",
        "Ð¾ÑĢ"
      ],
      [
        "ĠÐ¿ÑĢ",
        "Ð¾ÑĤÐ¸Ð²"
      ],
      [
        "ĠÐ·",
        "Ð°Ð±"
      ],
      [
        "ÑģÑĤÐ²",
        "ÐµÐ½Ð½Ð¾"
      ],
      [
        "ĠÐ¿ÑĢÐ¾Ð´",
        "Ð¾Ð»Ð¶"
      ],
      [
        "Ð½",
        "ÑĮ"
      ],
      [
        "ĠÐ°",
        "Ð»"
      ],
      [
        "ĠÐ²Ñģ",
        "ÐµÐ¼"
      ],
      [
        "ĠÐ½Ð°Ð¿Ð¾Ð»Ðµ",
        "Ð¾Ð½"
      ],
      [
        "ĠÑģÐ»",
        "Ð¾Ð²"
      ],
      [
        "ĠÑĥÐ²",
        "Ð¸Ð´"
      ],
      [
        "ÑĤ",
        "Ð¾Ð²"
      ],
      [
        "e",
        "u"
      ],
      [
        "Ġp",
        "a"
      ],
      [
        "ĠÐ¼",
        "ÐµÐ¶Ð´Ñĥ"
      ],
      [
        "ĠÐ½Ðµ",
        "Ðµ"
      ],
      [
        "ÑĢÐ°",
        "Ñī"
      ],
      [
        "Ð¼",
        "Ð¾"
      ],
      [
        "Ð¸Ð»",
        "Ð¾ÑģÑĮ"
      ],
      [
        "ĠÐ´Ð¾ÑĢ",
        "Ð¾Ð³"
      ],
      [
        "Ð¿",
        "Ð¾Ð¼"
      ],
      [
        ",",
        "["
      ],
      [
        "ĠÐ·",
        "Ð°Ð½"
      ],
      [
        "Ñĥ",
        "Ñī"
      ],
      [
        "ĠÑĩÐµÐ»Ð¾Ð²ÐµÐº",
        "Ð°"
      ],
      [
        "ĠÐ´",
        "ÐµÐ¸ÑģÑĤÐ²"
      ],
      [
        "ĠÐºÐ¾ÑĤÐ¾ÑĢ",
        "Ð¾Ðµ"
      ],
      [
        "i",
        "l"
      ],
      [
        "Ñģ",
        "Ð»Ð¸"
      ],
      [
        "ĠÐ¿",
        "Ð¾Ð±"
      ],
      [
        "ÐµÐ·",
        "Ð¶"
      ],
      [
        "Ð½",
        "ÐµÐ¸"
      ],
      [
        ".",
        "."
      ],
      [
        "Ñĭ",
        "Ñĩ"
      ],
      [
        "ĠÑĢ",
        "ÐµÑĪ"
      ],
      [
        "o",
        "m"
      ],
      [
        "ĠÐ¸",
        "Ð½"
      ],
      [
        "ĠÐ´",
        "Ð¾Ð±"
      ],
      [
        "ĠÐ´",
        "ÑĥÑĪ"
      ],
      [
        "ĠÐ¼",
        "Ð¸Ð»"
      ],
      [
        "ĠÐ´",
        "ÑĢ"
      ],
      [
        "ĠÐºÐ¾ÑĤÐ¾ÑĢ",
        "Ð¾Ð¸"
      ],
      [
        "Ð¾Ð´",
        "Ð°"
      ],
      [
        "Ñĩ",
        "Ðµ"
      ],
      [
        "ĠÐ³Ð¾",
        "ÑĢ"
      ],
      [
        "ĠÐ²",
        "Ð¼"
      ],
      [
        "Ñĩ",
        "Ð°Ñģ"
      ],
      [
        "ÑĤÐ¾",
        "Ð¸"
      ],
      [
        "ĠÐ¿ÑĢÐ¸Ðº",
        "Ð°Ð·"
      ],
      [
        "ĠÐºÐ¾ÑĤÐ¾ÑĢ",
        "Ð¾Ð³Ð¾"
      ],
      [
        "ĠÑįÑĤ",
        "Ð¾Ð¼"
      ],
      [
        "ÐµÐ½Ð½Ñĭ",
        "Ð¼"
      ],
      [
        "ĠÐ´",
        "Ðµ"
      ],
      [
        "ÑĮ",
        "Ñı"
      ],
      [
        "ÑģÑĤÑĢ",
        "Ð¾"
      ],
      [
        "Ñĥ",
        "ÑģÐº"
      ],
      [
        "ÐµÑĢ",
        "Ð³"
      ],
      [
        "ĠÑģÐ»",
        "ÑĥÑĩ"
      ],
      [
        "ĠÐ±Ð¾Ð»ÑĮ",
        "ÑĪÐµ"
      ],
      [
        "Ð±",
        "ÑĥÐ´ÑĮ"
      ],
      [
        "ĠÐ³ÐµÐ½ÐµÑĢ",
        "Ð°Ð»"
      ],
      [
        "m",
        "e"
      ],
      [
        "ĠÑģ",
        "Ñĭ"
      ],
      [
        "ĠÐ´",
        "Ð¾Ðº"
      ],
      [
        "ĠÑģÐ²",
        "Ð¾Ðµ"
      ],
      [
        "Ð½Ð¸",
        "Ð±ÑĥÐ´ÑĮ"
      ],
      [
        "ĠÑħÐ¾ÑĤ",
        "ÐµÐ»"
      ],
      [
        "ĠÐ½",
        "Ð°Ð¼"
      ],
      [
        "ĠÐ¾",
        "Ð³Ð»Ñı"
      ],
      [
        "ĠÐ½Ð°",
        "ÑħÐ¾Ð´"
      ],
      [
        "ĠÑĥ",
        "ÑĤ"
      ],
      [
        "ĠÑĥ",
        "Ðº"
      ],
      [
        "ĠÐ¸Ð¼",
        "Ð¿ÐµÑĢ"
      ],
      [
        "ĠÐº",
        "Ð°ÑĢ"
      ],
      [
        "ĠÑĢÑĥ",
        "ÐºÑĥ"
      ],
      [
        "ĠÐ´Ð¾Ð»",
        "Ð¾Ñħ"
      ],
      [
        "ĠÐ½Ðµ",
        "Ñģ"
      ],
      [
        "Ð´",
        "Ñı"
      ],
      [
        "ÐµÐ½",
        "Ð°"
      ],
      [
        "Ġ",
        "2"
      ],
      [
        "ÑĤ",
        "Ð°Ðº"
      ],
      [
        "ĠÐ²",
        "Ð°Ð¼"
      ],
      [
        "Ðº",
        "Ð°Ð¼Ð¸"
      ],
      [
        "Ñ",
        "į"
      ],
      [
        "Ð°ÐµÑĤ",
        "ÑģÑı"
      ],
      [
        "Ð»",
        "Ð°Ð´"
      ],
      [
        "ÐµÐ»",
        "Ñı"
      ],
      [
        "ĠÐ½Ð°",
        "ÑĢÐ¾Ð´"
      ],
      [
        "ĠÑģÑĤÐ¾",
        "Ñı"
      ],
      [
        "ĠÑĢÐ°Ð·Ð³",
        "Ð¾Ð²Ð¾ÑĢ"
      ],
      [
        "ĠÐ²",
        "ÐµÑĩ"
      ],
      [
        "ĠÐ¿ÑĢÐ¸",
        "Ð±"
      ],
      [
        "Ġl",
        "a"
      ],
      [
        "ĠÑĥ",
        "Ð¿"
      ],
      [
        "Ð¾Ð³",
        "Ð¾Ð²Ð¾ÑĢ"
      ],
      [
        "en",
        "t"
      ],
      [
        "ĠÐ¾ÑģÐ¾Ð±",
        "ÐµÐ½Ð½Ð¾"
      ],
      [
        "ÐµÐ²",
        "ÑĪ"
      ],
      [
        "Ð°ÑĤ",
        "ÐµÐ»ÑĮ"
      ],
      [
        "ÑĥÑİ",
        "Ñī"
      ],
      [
        "Ġv",
        "ous"
      ],
      [
        "ÑģÐº",
        "Ð¾Ð¸"
      ],
      [
        "ĠÐ»ÑİÐ´",
        "Ð¸"
      ]
    ]
  }
}