{
  "version": "1.0",
  "truncation": null,
  "padding": null,
  "added_tokens": [
    {
      "id": 0,
      "content": "[UNK]",
      "single_word": false,
      "lstrip": false,
      "rstrip": false,
      "normalized": false,
      "special": true
    },
    {
      "id": 1,
      "content": "[CLS]",
      "single_word": false,
      "lstrip": false,
      "rstrip": false,
      "normalized": false,
      "special": true
    },
    {
      "id": 2,
      "content": "[SEP]",
      "single_word": false,
      "lstrip": false,
      "rstrip": false,
      "normalized": false,
      "special": true
    },
    {
      "id": 3,
      "content": "[PAD]",
      "single_word": false,
      "lstrip": false,
      "rstrip": false,
      "normalized": false,
      "special": true
    },
    {
      "id": 4,
      "content": "[MASK]",
      "single_word": false,
      "lstrip": false,
      "rstrip": false,
      "normalized": false,
      "special": true
    }
  ],
  "normalizer": {
    "type": "Sequence",
    "normalizers": [
      {
        "type": "NFD"
      },
      {
        "type": "Lowercase"
      },
      {
        "type": "StripAccents"
      }
    ]
  },
  "pre_tokenizer": {
    "type": "Metaspace",
    "replacement": "▁",
    "prepend_scheme": "always",
    "split": true
  },
  "post_processor": null,
  "decoder": {
    "type": "Metaspace",
    "replacement": "▁",
    "prepend_scheme": "always",
    "split": true
  },
  "model": {
    "type": "Unigram",
    "unk_id": 0,
    "vocab": [
      [
        "[UNK]",
        0.0
      ],
      [
        "[CLS]",
        0.0
      ],
      [
        "[SEP]",
        0.0
      ],
      [
        "[PAD]",
        0.0
      ],
      [
        "[MASK]",
        0.0
      ],
      [
        ",",
        -3.102859756322113
      ],
      [
        "и",
        -3.474049374474866
      ],
      [
        "▁",
        -3.699810743461807
      ],
      [
        "е",
        -3.8872572455579597
      ],
      [
        "▁и",
        -3.9597200342184973
      ],
      [
        ".",
        -4.022755741246186
      ],
      [
        "в",
        -4.154073095783895
      ],
      [
        "о",
        -4.178762798869496
      ],
      [
        "а",
        -4.205854190403723
      ],
      [
        "▁в",
        -4.265213169605557
      ],
      [
        "л",
        -4.285296625627838
      ],
      [
        "▁с",
        -4.346344524193325
      ],
      [
        "с",
        -4.382073156669458
      ],
      [
        "у",
        -4.399313928621639
      ],
      [
        "я",
        -4.455527519271998
      ],
      [
        "д",
        -4.463177761736251
      ],
      [
        "▁не",
        -4.481784160759869
      ],
      [
        "т",
        -4.4894871948257045
      ],
      [
        "\n",
        -4.531855594707908
      ],
      [
        "\r",
        -4.531855594707908
      ],
      [
        "н",
        -4.702133337012398
      ],
      [
        "▁на",
        -4.716561873399366
      ],
      [
        "м",
        -4.760227989490355
      ],
      [
        "▁по",
        -4.869929903052801
      ],
      [
        "р",
        -4.92027858464591
      ],
      [
        "з",
        -4.988316880643843
      ],
      [
        "–",
        -4.989096296171761
      ],
      [
        "п",
        -5.0429764880800505
      ],
      [
        "▁он",
        -5.054344249544293
      ],
      [
        "▁что",
        -5.054409191611141
      ],
      [
        "ла",
        -5.1084875753309085
      ],
      [
        "б",
        -5.114124628620203
      ],
      [
        "▁к",
        -5.153920305045586
      ],
      [
        "г",
        -5.1958717040629345
      ],
      [
        "х",
        -5.200821722719759
      ],
      [
        " ",
        -5.23163941552996
      ],
      [
        "▁у",
        -5.247920518313128
      ],
      [
        "ра",
        -5.303280156211816
      ],
      [
        "ж",
        -5.307967781619414
      ],
      [
        "▁за",
        -5.363633326943583
      ],
      [
        "к",
        -5.379961033343289
      ],
      [
        "но",
        -5.405419309335947
      ],
      [
        "▁о",
        -5.467573442600431
      ],
      [
        "ст",
        -5.471260880014862
      ],
      [
        "ы",
        -5.4718759238814805
      ],
      [
        "▁от",
        -5.492589934759181
      ],
      [
        "ка",
        -5.492591379783667
      ],
      [
        "ли",
        -5.495669371988509
      ],
      [
        "ю",
        -5.505880759803787
      ],
      [
        "ш",
        -5.566225939649103
      ],
      [
        "▁как",
        -5.566474687969819
      ],
      [
        "ло",
        -5.573582055600218
      ],
      [
        "▁– ",
        -5.607870698615779
      ],
      [
        "ч",
        -5.649179334456775
      ],
      [
        "ть",
        -5.731826833225513
      ],
      [
        "▁его",
        -5.737436781703627
      ],
      [
        "ен",
        -5.746087227760846
      ],
      [
        "▁при",
        -5.776335128353356
      ],
      [
        "▁то",
        -5.812017586360932
      ],
      [
        "i",
        -5.821392949961137
      ],
      [
        "ь",
        -5.83589330268245
      ],
      [
        "ов",
        -5.841103118920426
      ],
      [
        "▁но",
        -5.8594696759819165
      ],
      [
        "ом",
        -5.875358867540912
      ],
      [
        "ни",
        -5.8914960830624175
      ],
      [
        "го",
        -5.893180755062113
      ],
      [
        "не",
        -5.900179704739056
      ],
      [
        "на",
        -5.9043575690664465
      ],
      [
        "▁про",
        -5.90927347758595
      ],
      [
        "ре",
        -5.911635361208928
      ],
      [
        "ва",
        -5.9240660316735365
      ],
      [
        "▁вы",
        -5.935936760361123
      ],
      [
        "▁все",
        -5.94486971924292
      ],
      [
        "ко",
        -5.982866979440027
      ],
      [
        "да",
        -5.986605204535691
      ],
      [
        "▁же",
        -6.011106153801942
      ],
      [
        "?",
        -6.018785900001786
      ],
      [
        "▁я",
        -6.020952049196516
      ],
      [
        "ся",
        -6.023818579947291
      ],
      [
        "ер",
        -6.030403450759846
      ],
      [
        "▁так",
        -6.041261718085293
      ],
      [
        "▁это",
        -6.042126360639274
      ],
      [
        "ет",
        -6.043849347476359
      ],
      [
        "ше",
        -6.0700525501573805
      ],
      [
        "ки",
        -6.088793935520759
      ],
      [
        "s",
        -6.11554058452462
      ],
      [
        "▁д",
        -6.130118368841749
      ],
      [
        "чи",
        -6.130881796970616
      ],
      [
        "▁со",
        -6.131247013248476
      ],
      [
        "та",
        -6.1610091493267785
      ],
      [
        "▁а",
        -6.1620616740182275
      ],
      [
        "▁из",
        -6.171847366574521
      ],
      [
        "▁она",
        -6.1827934224221055
      ],
      [
        "ми",
        -6.195000268679488
      ],
      [
        "ем",
        -6.19751097568178
      ],
      [
        "▁было",
        -6.199414433050945
      ],
      [
        "▁во",
        -6.202119521701377
      ],
      [
        "ль",
        -6.204900838627562
      ],
      [
        "!",
        -6.209686223421359
      ],
      [
        "ор",
        -6.212324457440058
      ],
      [
        "че",
        -6.22675974574037
      ],
      [
        "e",
        -6.22750939108515
      ],
      [
        "▁об",
        -6.227943047360902
      ],
      [
        "▁под",
        -6.229769773652639
      ],
      [
        "ну",
        -6.250710099531986
      ],
      [
        "ча",
        -6.280851121837813
      ],
      [
        "ои",
        -6.282000784685168
      ],
      [
        "a",
        -6.288417344375975
      ],
      [
        "▁до",
        -6.29674106871691
      ],
      [
        "ля",
        -6.306591849624777
      ],
      [
        "а,",
        -6.3417049228696225
      ],
      [
        "▁раз",
        -6.360812714097938
      ],
      [
        "▁сказал",
        -6.361064845749353
      ],
      [
        "▁п",
        -6.3791520912637765
      ],
      [
        "ал",
        -6.380237109148912
      ],
      [
        "t",
        -6.381584724507228
      ],
      [
        "щ",
        -6.429403175358041
      ],
      [
        "▁бы",
        -6.435446141547008
      ],
      [
        "му",
        -6.444656380734448
      ],
      [
        "u",
        -6.447648266164217
      ],
      [
        "ого",
        -6.46145297688383
      ],
      [
        ";",
        -6.467663494238711
      ],
      [
        "ши",
        -6.47489450611254
      ],
      [
        "то",
        -6.484479810365159
      ],
      [
        "ри",
        -6.516227896294353
      ],
      [
        "же",
        -6.520224735250684
      ],
      [
        "ку",
        -6.523698268752217
      ],
      [
        "сто",
        -6.538037956546745
      ],
      [
        "ру",
        -6.540416920583662
      ],
      [
        "-",
        -6.545728297710786
      ],
      [
        "▁пьер",
        -6.547745263111215
      ],
      [
        "▁ему",
        -6.550262993673693
      ],
      [
        ". ",
        -6.565135821517597
      ],
      [
        "ил",
        -6.575685026950268
      ],
      [
        "▁ее",
        -6.588179571214836
      ],
      [
        "…",
        -6.6041621887568205
      ],
      [
        "▁был",
        -6.606485453332766
      ],
      [
        "r",
        -6.609975454548991
      ],
      [
        "сти",
        -6.635918888540865
      ],
      [
        "ще",
        -6.636840826218464
      ],
      [
        "лся",
        -6.637854648304564
      ],
      [
        "▁только",
        -6.638460456038951
      ],
      [
        "ста",
        -6.643924985340075
      ],
      [
        "n",
        -6.65822414182277
      ],
      [
        "де",
        -6.675088548081149
      ],
      [
        "ры",
        -6.675224932120102
      ],
      [
        "ить",
        -6.687503734257418
      ],
      [
        "ф",
        -6.700089876431704
      ],
      [
        "те",
        -6.71682992322801
      ],
      [
        "им",
        -6.723097502343803
      ],
      [
        "ая",
        -6.726429333306951
      ],
      [
        "o",
        -6.74374528996046
      ],
      [
        "ны",
        -6.752277718094859
      ],
      [
        "ма",
        -6.766552085840039
      ],
      [
        "▁–",
        -6.776597674567845
      ],
      [
        "лась",
        -6.792024025825487
      ],
      [
        "c",
        -6.7935022456144845
      ],
      [
        "▁друг",
        -6.799471583761866
      ],
      [
        "▁князь",
        -6.816604851836428
      ],
      [
        "▁зна",
        -6.822160191720403
      ],
      [
        ":",
        -6.825576862888831
      ],
      [
        "за",
        -6.825769514136174
      ],
      [
        "▁мо",
        -6.830262996787655
      ],
      [
        "▁ма",
        -6.8381539299612975
      ],
      [
        "▁б",
        -6.844875035357383
      ],
      [
        "жи",
        -6.850436655770366
      ],
      [
        "m",
        -6.8625586119309006
      ],
      [
        "▁ни",
        -6.871499427043515
      ],
      [
        "▁да",
        -6.876622807374783
      ],
      [
        "▁пере",
        -6.878503818104698
      ],
      [
        "ным",
        -6.8790074341909335
      ],
      [
        "ц",
        -6.890704386083846
      ],
      [
        "ты",
        -6.899877029786683
      ],
      [
        "це",
        -6.911836523622224
      ],
      [
        "▁говорил",
        -6.919341150328442
      ],
      [
        "ят",
        -6.923244628618846
      ],
      [
        "▁де",
        -6.929437823927933
      ],
      [
        "ения",
        -6.9336895195139
      ],
      [
        "▁ме",
        -6.93577113419372
      ],
      [
        "ние",
        -6.93774730978369
      ],
      [
        "ым",
        -6.94684400113155
      ],
      [
        "нои",
        -6.953923575634632
      ],
      [
        "у,",
        -6.957455733093873
      ],
      [
        "ых",
        -6.960056287730741
      ],
      [
        "ую",
        -6.9637907348470725
      ],
      [
        "▁ли",
        -6.969571861038359
      ],
      [
        "ать",
        -6.97192906207653
      ],
      [
        "ния",
        -6.9759621314187
      ],
      [
        "▁еще",
        -6.979351098262478
      ],
      [
        "▁когда",
        -6.986584789075632
      ],
      [
        "лись",
        -6.992560300657333
      ],
      [
        "▁ш",
        -7.001707643832757
      ],
      [
        "▁г",
        -7.0026771507914995
      ],
      [
        "▁мог",
        -7.003826463294683
      ],
      [
        "ами",
        -7.005956577580852
      ],
      [
        "▁сам",
        -7.007164992591518
      ],
      [
        "а.",
        -7.010510995975629
      ],
      [
        "е,",
        -7.01245208960537
      ],
      [
        "ца",
        -7.021402281360287
      ],
      [
        "l",
        -7.025022281340257
      ],
      [
        "ите",
        -7.0272355360070256
      ],
      [
        "▁«",
        -7.035385006485995
      ],
      [
        "▁го",
        -7.037304233174571
      ],
      [
        "пр",
        -7.041620001417608
      ],
      [
        "▁рас",
        -7.042124108427674
      ],
      [
        "ясь",
        -7.043916623940432
      ],
      [
        "ение",
        -7.049432314443507
      ],
      [
        "ое",
        -7.060325990771406
      ],
      [
        "ыи",
        -7.066590105643005
      ],
      [
        "ство",
        -7.077022485233172
      ],
      [
        "ных",
        -7.079479701905474
      ],
      [
        "их",
        -7.0924197578229675
      ],
      [
        "▁ростов",
        -7.1114343970960805
      ],
      [
        "он",
        -7.128657045200618
      ],
      [
        "▁ре",
        -7.139863144761768
      ],
      [
        "▁чтобы",
        -7.15184519650251
      ],
      [
        "-то",
        -7.15507433859561
      ],
      [
        "▁граф",
        -7.158470525244583
      ],
      [
        "▁тр",
        -7.161221677932912
      ],
      [
        "▁de",
        -7.168207872117858
      ],
      [
        "▁пол",
        -7.179592076182995
      ],
      [
        "ша",
        -7.193516017155524
      ],
      [
        "▁дл",
        -7.195075972307973
      ],
      [
        "спо",
        -7.206821261930314
      ],
      [
        "re",
        -7.207929483532852
      ],
      [
        "ться",
        -7.212824425917471
      ],
      [
        "▁теперь",
        -7.2144702866376305
      ],
      [
        "▁мне",
        -7.22831188073311
      ],
      [
        "▁андреи",
        -7.228978764443282
      ],
      [
        "жд",
        -7.230556419228995
      ],
      [
        "en",
        -7.231570191659774
      ],
      [
        "▁него",
        -7.232940417380029
      ],
      [
        "ного",
        -7.242782156031844
      ],
      [
        "бо",
        -7.2487373922786364
      ],
      [
        "▁была",
        -7.251768582798135
      ],
      [
        "ы,",
        -7.253863712355205
      ],
      [
        "вать",
        -7.256047208302073
      ],
      [
        "ное",
        -7.260021616739645
      ],
      [
        "▁бо",
        -7.2630691781701735
      ],
      [
        "ныи",
        -7.269491738777972
      ],
      [
        "лось",
        -7.270787818425257
      ],
      [
        "▁дела",
        -7.275976211791169
      ],
      [
        "▁были",
        -7.276159473135728
      ],
      [
        "ю,",
        -7.278617827596484
      ],
      [
        "▁вид",
        -7.279793541372633
      ],
      [
        "▁a",
        -7.2888476608150405
      ],
      [
        "еи",
        -7.28962358364531
      ],
      [
        "▁рук",
        -7.289650791517537
      ],
      [
        "v",
        -7.2968994499430915
      ],
      [
        ")",
        -7.308506292426601
      ],
      [
        "▁себя",
        -7.3097525062327415
      ],
      [
        "ник",
        -7.321139941327798
      ],
      [
        "▁ле",
        -7.329916688917968
      ],
      [
        "тельно",
        -7.332037823675787
      ],
      [
        "ют",
        -7.334226354409786
      ],
      [
        "вал",
        -7.338532813908731
      ],
      [
        "▁наташа",
        -7.340693346354879
      ],
      [
        "d",
        -7.342219586307672
      ],
      [
        "▁ба",
        -7.344794068649197
      ],
      [
        "ные",
        -7.345566870848103
      ],
      [
        "▁этого",
        -7.350853225139179
      ],
      [
        "у.",
        -7.36812001283608
      ],
      [
        "▁вер",
        -7.371652619181143
      ],
      [
        "▁после",
        -7.372300505595631
      ],
      [
        "▁быть",
        -7.3745435843676015
      ],
      [
        "▁хо",
        -7.377515579718219
      ],
      [
        "▁ту",
        -7.3831603049554975
      ],
      [
        "▁(",
        -7.385662108685804
      ],
      [
        "▁пред",
        -7.386120314836441
      ],
      [
        "▁те",
        -7.4002868444769385
      ],
      [
        "▁ж",
        -7.400708396048154
      ],
      [
        "ков",
        -7.400999363641797
      ],
      [
        "▁уже",
        -7.410128955138247
      ],
      [
        "▁тем",
        -7.412818200273877
      ],
      [
        "▁ты",
        -7.424576772296648
      ],
      [
        "▁гр",
        -7.427133712375938
      ],
      [
        "ок",
        -7.428206834456345
      ],
      [
        "▁том",
        -7.431396365811355
      ],
      [
        "ком",
        -7.437748982738083
      ],
      [
        "▁время",
        -7.439703879412012
      ],
      [
        "▁ко",
        -7.440318429068356
      ],
      [
        "ке",
        -7.4415472612719915
      ],
      [
        "пи",
        -7.443937763162538
      ],
      [
        "лы",
        -7.445407814204637
      ],
      [
        "on",
        -7.450873731972245
      ],
      [
        "▁име",
        -7.454105951804464
      ],
      [
        "ые",
        -7.456445575275008
      ],
      [
        "кои",
        -7.45674225702828
      ],
      [
        "бы",
        -7.457646580325661
      ],
      [
        "▁стар",
        -7.469293252214762
      ],
      [
        "ется",
        -7.474530881526708
      ],
      [
        "сть",
        -7.477407426639651
      ],
      [
        "ова",
        -7.4798131302455655
      ],
      [
        "▁эти",
        -7.488387139621715
      ],
      [
        "▁чем",
        -7.492572045378591
      ],
      [
        "▁сказала",
        -7.497156694920436
      ],
      [
        "▁которые",
        -7.499753816258277
      ],
      [
        "▁свое",
        -7.500980661244869
      ],
      [
        "b",
        -7.505666524412022
      ],
      [
        "▁себе",
        -7.50574117226177
      ],
      [
        "▁они",
        -7.505958201608649
      ],
      [
        "▁мы",
        -7.51104078601339
      ],
      [
        "э",
        -7.512988510557834
      ],
      [
        "▁перед",
        -7.525922076346805
      ],
      [
        "чно",
        -7.528179835573147
      ],
      [
        "м,",
        -7.528255848004754
      ],
      [
        "te",
        -7.53325404809933
      ],
      [
        "▁человек",
        -7.536536053040796
      ],
      [
        "▁или",
        -7.537716168277399
      ],
      [
        "▁лицо",
        -7.545227410845211
      ],
      [
        "ом,",
        -7.545403314580046
      ],
      [
        "me",
        -7.553557458530888
      ],
      [
        "▁ро",
        -7.5557779820715085
      ],
      [
        "▁солдат",
        -7.560527805987184
      ],
      [
        "▁их",
        -7.56590798308619
      ],
      [
        "3",
        -7.568272001229568
      ],
      [
        "g",
        -7.568378188060289
      ],
      [
        "▁воз",
        -7.569438614549241
      ],
      [
        "нии",
        -7.571767969715823
      ],
      [
        "▁которыи",
        -7.573125175105586
      ],
      [
        "▁то,",
        -7.573867008167524
      ],
      [
        "▁стал",
        -7.574193307677492
      ],
      [
        "ща",
        -7.577657902383068
      ],
      [
        "или",
        -7.581075229701374
      ],
      [
        "ную",
        -7.581887454457946
      ],
      [
        "▁гор",
        -7.585677588781808
      ],
      [
        "▁меня",
        -7.587721848703763
      ],
      [
        "нул",
        -7.590178551264975
      ],
      [
        "ства",
        -7.591866398932567
      ],
      [
        "is",
        -7.594323144004501
      ],
      [
        "▁опять",
        -7.595582219234913
      ],
      [
        "прав",
        -7.597141229704519
      ],
      [
        "стре",
        -7.59766944072941
      ],
      [
        "ости",
        -7.597891868967063
      ],
      [
        "▁еи",
        -7.603571289562041
      ],
      [
        "▁одно",
        -7.608071078128162
      ],
      [
        "▁т",
        -7.6082101017096475
      ],
      [
        "’",
        -7.61189747703533
      ],
      [
        "▁наполеон",
        -7.611933450852214
      ],
      [
        "▁боль",
        -7.615353905163201
      ],
      [
        "▁па",
        -7.616437961561382
      ],
      [
        "▁голос",
        -7.617019917201032
      ],
      [
        "ах",
        -7.619929077018999
      ],
      [
        "▁один",
        -7.628689300617052
      ],
      [
        "ении",
        -7.63368202530082
      ],
      [
        "▁пу",
        -7.634174017338616
      ],
      [
        "▁оста",
        -7.638297834008244
      ],
      [
        "ная",
        -7.646325012149128
      ],
      [
        "▁без",
        -7.653734488911291
      ],
      [
        "ном",
        -7.65596868780952
      ],
      [
        "▁ним",
        -7.6571269451887725
      ],
      [
        "▁этот",
        -7.666375759558088
      ],
      [
        "▁офицер",
        -7.673125021813387
      ],
      [
        "▁княжна",
        -7.681927885997506
      ],
      [
        "тель",
        -7.690795855422104
      ],
      [
        "▁всех",
        -7.693715039548516
      ],
      [
        "▁того,",
        -7.694777521922748
      ],
      [
        "род",
        -7.695340542705696
      ],
      [
        "▁кутузов",
        -7.697970988794779
      ],
      [
        "▁русск",
        -7.701674027279877
      ],
      [
        "▁дом",
        -7.704099059555311
      ],
      [
        "ou",
        -7.705202768379119
      ],
      [
        "▁потому",
        -7.705922177790055
      ],
      [
        "»",
        -7.707059068839166
      ],
      [
        "▁ничего",
        -7.712465226702472
      ],
      [
        "▁свои",
        -7.713324720266852
      ],
      [
        "x",
        -7.7142756909524985
      ],
      [
        "▁час",
        -7.717634006067313
      ],
      [
        "▁есть",
        -7.718579001823149
      ],
      [
        "er",
        -7.726085830428687
      ],
      [
        "4",
        -7.728889092905865
      ],
      [
        "вшись",
        -7.7477503117703135
      ],
      [
        "▁очень",
        -7.749596263819607
      ],
      [
        "ам",
        -7.751006025027675
      ],
      [
        "но,",
        -7.759183510166229
      ],
      [
        "0",
        -7.761013155184376
      ],
      [
        "▁стол",
        -7.762996402010971
      ],
      [
        "ци",
        -7.765516331249626
      ],
      [
        "ность",
        -7.773901437773707
      ],
      [
        "▁прав",
        -7.775503546015687
      ],
      [
        "ами,",
        -7.77671182055918
      ],
      [
        "▁своеи",
        -7.785923231183105
      ],
      [
        "▁будет",
        -7.788216462208166
      ],
      [
        "оль",
        -7.788462152529185
      ],
      [
        "p",
        -7.789262157784052
      ],
      [
        "▁марья",
        -7.79211446960791
      ],
      [
        "ности",
        -7.795826122720084
      ],
      [
        "▁вас",
        -7.798451061923102
      ],
      [
        "▁пер",
        -7.800017492680665
      ],
      [
        "▁глаза",
        -7.802541395999569
      ],
      [
        "нее",
        -7.8027767591940425
      ],
      [
        "▁вдруг",
        -7.806033940645446
      ],
      [
        "▁может",
        -7.8061244607745
      ],
      [
        "ne",
        -7.810087564547802
      ],
      [
        "дел",
        -7.811212768031039
      ],
      [
        "вшии",
        -7.812927553138649
      ],
      [
        "ряд",
        -7.819116247577628
      ],
      [
        "е.",
        -7.822693774297042
      ],
      [
        "▁p",
        -7.8262504314950645
      ],
      [
        "ился",
        -7.8291272142720905
      ],
      [
        "▁говор",
        -7.831852336405068
      ],
      [
        "▁сдела",
        -7.836063785749596
      ],
      [
        "▁будто",
        -7.844828673715546
      ],
      [
        "дум",
        -7.845167451881979
      ],
      [
        "▁бог",
        -7.851146747038769
      ],
      [
        "▁молод",
        -7.855459805295993
      ],
      [
        "▁пре",
        -7.856219026962633
      ],
      [
        "5",
        -7.8573764885334585
      ],
      [
        "мысл",
        -7.858454318280118
      ],
      [
        "▁вот",
        -7.85877895598174
      ],
      [
        "▁надо",
        -7.859791101247246
      ],
      [
        "▁пе",
        -7.862746828759227
      ],
      [
        "▁думал",
        -7.868075286935493
      ],
      [
        "люб",
        -7.868829085555239
      ],
      [
        "▁людеи",
        -7.885156233550981
      ],
      [
        "енным",
        -7.885865811731114
      ],
      [
        "▁кон",
        -7.8910222220182735
      ],
      [
        "▁f",
        -7.891362310658424
      ],
      [
        "▁сторон",
        -7.896056424371402
      ],
      [
        "мер",
        -7.901737026745094
      ],
      [
        "▁бес",
        -7.90245455475063
      ],
      [
        "▁ум",
        -7.904186592142183
      ],
      [
        "▁су",
        -7.905190616670793
      ],
      [
        "▁хотел",
        -7.906279347109858
      ],
      [
        "ыми",
        -7.9063567860568105
      ],
      [
        "чь",
        -7.9155590020548345
      ],
      [
        "▁цел",
        -7.926492297378432
      ],
      [
        "▁денисов",
        -7.931728878117598
      ],
      [
        "▁что-то",
        -7.932102492330905
      ],
      [
        "▁само",
        -7.93933732887797
      ],
      [
        "▁ежели",
        -7.945451406522703
      ],
      [
        "▁день",
        -7.947889756906115
      ],
      [
        "▁князя",
        -7.95005588127373
      ],
      [
        "▁генерал",
        -7.952370827820989
      ],
      [
        "▁дело",
        -7.953132062576818
      ],
      [
        "▁бу",
        -7.956890996325384
      ],
      [
        "▁более",
        -7.961696966600545
      ],
      [
        "слов",
        -7.963496537614137
      ],
      [
        "ra",
        -7.968444917928993
      ],
      [
        "▁понима",
        -7.9712323381939925
      ],
      [
        "▁слова",
        -7.971425232542185
      ],
      [
        "▁кол",
        -7.9755141312218765
      ],
      [
        "▁своим",
        -7.9761132745089975
      ],
      [
        "ешь",
        -7.981788431570397
      ],
      [
        "▁сме",
        -7.985021197903091
      ],
      [
        "▁ma",
        -7.985487450047518
      ],
      [
        "ах,",
        -7.986837526534346
      ],
      [
        "ому",
        -7.98999466246991
      ],
      [
        "▁своего",
        -7.994701427114688
      ],
      [
        "▁где",
        -7.997377113026034
      ],
      [
        "▁пьера",
        -8.000923681106727
      ],
      [
        "7",
        -8.002262115487795
      ],
      [
        "9",
        -8.007146127653101
      ],
      [
        "ец",
        -8.008732900660835
      ],
      [
        "▁видел",
        -8.011450295180138
      ],
      [
        "▁француз",
        -8.013322496059903
      ],
      [
        "▁знал",
        -8.016167241468183
      ],
      [
        "▁другои",
        -8.020131593388026
      ],
      [
        "ъ",
        -8.024426890614254
      ],
      [
        "▁свою",
        -8.026965125219293
      ],
      [
        "▁больше",
        -8.02804934000678
      ],
      [
        "ость",
        -8.028566839400089
      ],
      [
        "твер",
        -8.029444654672673
      ],
      [
        "▁дорог",
        -8.032180680059547
      ],
      [
        "▁несколько",
        -8.034443101731199
      ],
      [
        "▁всегда",
        -8.034565140860195
      ],
      [
        "▁вперед",
        -8.044560044469641
      ],
      [
        "▁et",
        -8.045233075848389
      ],
      [
        "ью",
        -8.046101274871567
      ],
      [
        "скии",
        -8.046742970346921
      ],
      [
        "▁жизни",
        -8.047104615045699
      ],
      [
        "▁николаи",
        -8.047421678818385
      ],
      [
        "▁приказ",
        -8.048669851375148
      ],
      [
        "цы",
        -8.051603667118597
      ],
      [
        "▁вопрос",
        -8.052211311016555
      ],
      [
        "▁этом",
        -8.05221189489335
      ],
      [
        "▁кто",
        -8.06305457737216
      ],
      [
        "ch",
        -8.068661819149316
      ],
      [
        "▁рад",
        -8.073687442467904
      ],
      [
        "▁останови",
        -8.075561800189533
      ],
      [
        "lle",
        -8.077957324675118
      ],
      [
        "▁против",
        -8.080830380119261
      ],
      [
        "вшие",
        -8.082542712363836
      ],
      [
        "ись",
        -8.083617234589724
      ],
      [
        "▁мил",
        -8.085818447524952
      ],
      [
        "ского",
        -8.086289597423528
      ],
      [
        "le",
        -8.094420594926993
      ],
      [
        "▁co",
        -8.102144905225266
      ],
      [
        "▁между",
        -8.10481641933513
      ],
      [
        "▁начал",
        -8.107576205731355
      ],
      [
        "вали",
        -8.110324165756785
      ],
      [
        "▁смотрел",
        -8.111996522243878
      ],
      [
        "нулся",
        -8.11367872065333
      ],
      [
        "уша",
        -8.11570222278918
      ],
      [
        "держа",
        -8.125357218438587
      ],
      [
        "▁которое",
        -8.12661360820789
      ],
      [
        "▁лица",
        -8.128260760765333
      ],
      [
        "▁спросил",
        -8.129375969551509
      ],
      [
        "▁должн",
        -8.132290132787883
      ],
      [
        "▁стоял",
        -8.135388320973497
      ],
      [
        "ити",
        -8.13565542127549
      ],
      [
        "▁два",
        -8.136539132298946
      ],
      [
        "вших",
        -8.142054295637251
      ],
      [
        "▁улыб",
        -8.142694497748709
      ],
      [
        "вели",
        -8.146383476872742
      ],
      [
        "▁которои",
        -8.148929828885512
      ],
      [
        "▁отвечал",
        -8.151755355491487
      ],
      [
        "▁котором",
        -8.151755517434701
      ],
      [
        "▁весел",
        -8.154631808486673
      ],
      [
        "▁которого",
        -8.168873432281252
      ],
      [
        "▁la",
        -8.169008524332176
      ],
      [
        "▁всем",
        -8.17379696523075
      ],
      [
        "ывал",
        -8.17473011029653
      ],
      [
        "▁того",
        -8.178901033742374
      ],
      [
        "▁вам",
        -8.179130928755402
      ],
      [
        "анны",
        -8.180294774088146
      ],
      [
        "▁муж",
        -8.185292581249534
      ],
      [
        "▁свет",
        -8.191542560092527
      ],
      [
        "-нибудь",
        -8.192163983184704
      ],
      [
        "тво",
        -8.194066603935545
      ],
      [
        "▁чере",
        -8.194185930554227
      ],
      [
        "▁человека",
        -8.196582053337645
      ],
      [
        "h",
        -8.196950301890741
      ],
      [
        "▁особенно",
        -8.204015973103626
      ],
      [
        "▁долохов",
        -8.204017592179216
      ],
      [
        "ось",
        -8.20416058526768
      ],
      [
        "вшего",
        -8.211254567714768
      ],
      [
        "енныи",
        -8.211555527993804
      ],
      [
        "▁разговор",
        -8.222144057083975
      ],
      [
        "▁взгляд",
        -8.225101180563872
      ],
      [
        "▁le",
        -8.226225476592994
      ],
      [
        "▁воиска",
        -8.230547922618225
      ],
      [
        "▁народ",
        -8.2370528497867
      ],
      [
        "ивая",
        -8.23733281456515
      ],
      [
        "▁продолжа",
        -8.237352372383807
      ],
      [
        "▁vous",
        -8.237353904654654
      ],
      [
        "▁люди",
        -8.23735410385742
      ],
      [
        "▁добр",
        -8.244676951479667
      ],
      [
        "ственно",
        -8.24900850453363
      ],
      [
        "▁воин",
        -8.255650669899595
      ],
      [
        "▁руку",
        -8.264527049274655
      ],
      [
        "▁казалось",
        -8.265479774377011
      ],
      [
        "▁потом",
        -8.269643653722163
      ],
      [
        "tre",
        -8.271526921136822
      ],
      [
        "ались",
        -8.276403019461737
      ],
      [
        "образ",
        -8.282110832727955
      ],
      [
        "▁французск",
        -8.28244082199979
      ],
      [
        "▁чувствовал",
        -8.283616007497884
      ],
      [
        "пер",
        -8.287072894767991
      ],
      [
        "▁que",
        -8.287179541121521
      ],
      [
        "▁графиня",
        -8.287925840503341
      ],
      [
        "▁прежде",
        -8.287960559299247
      ],
      [
        "бел",
        -8.29240913643794
      ],
      [
        "стью",
        -8.294611007035336
      ],
      [
        "▁крик",
        -8.296114045852683
      ],
      [
        "нять",
        -8.296716856614758
      ],
      [
        "пал",
        -8.29764700993967
      ],
      [
        "▁этих",
        -8.303495052970042
      ],
      [
        "▁никогда",
        -8.307556745263323
      ],
      [
        "▁император",
        -8.314190077065554
      ],
      [
        "▁молча",
        -8.317648610216956
      ],
      [
        "▁сидел",
        -8.318643145205211
      ],
      [
        "вар",
        -8.323942583203166
      ],
      [
        "f",
        -8.331458692793756
      ],
      [
        "ству",
        -8.333693032540644
      ],
      [
        "▁борис",
        -8.33442723883381
      ],
      [
        "▁двор",
        -8.334783559246258
      ],
      [
        "вшим",
        -8.33593689950321
      ],
      [
        "▁чувств",
        -8.33923202318355
      ],
      [
        "▁шаг",
        -8.342322231627106
      ],
      [
        "▁голову",
        -8.354953469286006
      ],
      [
        "▁сын",
        -8.357367052762399
      ],
      [
        "▁находи",
        -8.372586493201627
      ],
      [
        "▁тогда",
        -8.383267881122128
      ],
      [
        "▁говорить",
        -8.387871398638012
      ],
      [
        "▁даже",
        -8.390803524721921
      ],
      [
        "▁узна",
        -8.39082185595986
      ],
      [
        "▁вечер",
        -8.394034305630917
      ],
      [
        "▁которая",
        -8.397427400232175
      ],
      [
        "смотря",
        -8.407415645906019
      ],
      [
        "▁нужно",
        -8.408343675931626
      ],
      [
        "ишь",
        -8.409076956608331
      ],
      [
        "ати",
        -8.409937561951066
      ],
      [
        "▁полк",
        -8.411795620805522
      ],
      [
        "▁брат",
        -8.412033305636426
      ],
      [
        "▁там",
        -8.416718062063062
      ],
      [
        "▁жив",
        -8.423399022104118
      ],
      [
        "▁назад",
        -8.42733679539403
      ],
      [
        "▁никол",
        -8.428501825432225
      ],
      [
        "▁буду",
        -8.430773517053993
      ],
      [
        "ывая",
        -8.433941536440338
      ],
      [
        "▁одна",
        -8.438723169944247
      ],
      [
        "▁которых",
        -8.441796603525468
      ],
      [
        "▁армии",
        -8.449392562034298
      ],
      [
        "кро",
        -8.449961755030806
      ],
      [
        "▁соня",
        -8.451109848367363
      ],
      [
        "▁je",
        -8.453247924986028
      ],
      [
        "▁причин",
        -8.455751356573558
      ],
      [
        "ez",
        -8.457673116283399
      ],
      [
        "ехать",
        -8.46919119293025
      ],
      [
        "!»",
        -8.470295296225233
      ],
      [
        "▁эту",
        -8.47642378129281
      ],
      [
        "▁бр",
        -8.480041441489124
      ],
      [
        "▁выражение",
        -8.481487361709117
      ],
      [
        "j",
        -8.484227890982119
      ],
      [
        "▁долго",
        -8.488610742793234
      ],
      [
        "▁замет",
        -8.488744369227046
      ],
      [
        "▁свобод",
        -8.496179070537185
      ],
      [
        "▁вместе",
        -8.50018014840984
      ],
      [
        "▁почти",
        -8.500228292178633
      ],
      [
        "лег",
        -8.506869248320408
      ],
      [
        "▁маленьк",
        -8.508227102144286
      ],
      [
        "▁андрея",
        -8.512275653750429
      ],
      [
        "▁чего",
        -8.515022076439607
      ],
      [
        "▁петербург",
        -8.516340653084203
      ],
      [
        "▁государь",
        -8.51634065312257
      ],
      [
        "▁глядя",
        -8.520423761212449
      ],
      [
        "▁эта",
        -8.52056513103113
      ],
      [
        "▁французов",
        -8.525301093213589
      ],
      [
        "▁хорош",
        -8.525973564321093
      ],
      [
        "анна",
        -8.528402180902512
      ],
      [
        "▁жизнь",
        -8.532768272397966
      ],
      [
        "▁адъютант",
        -8.536917481726677
      ],
      [
        "▁мир",
        -8.54032150572744
      ],
      [
        "▁ожида",
        -8.541278547556665
      ],
      [
        "▁хотя",
        -8.550197717411777
      ],
      [
        "▁жал",
        -8.552565406481168
      ],
      [
        "▁обратил",
        -8.553808361401217
      ],
      [
        "чески",
        -8.557888282884521
      ],
      [
        "▁тебе",
        -8.562654401398436
      ],
      [
        "▁говорит",
        -8.563624301509819
      ],
      [
        "▁глазами",
        -8.569547974437548
      ],
      [
        "▁которую",
        -8.570747471579066
      ],
      [
        "нье",
        -8.57125202441608
      ],
      [
        "ится",
        -8.577284968352128
      ],
      [
        "▁времени",
        -8.579387128451238
      ],
      [
        "▁un",
        -8.581278405432034
      ],
      [
        "▁обед",
        -8.583987692954254
      ],
      [
        "▁глав",
        -8.588678668181291
      ],
      [
        "▁подня",
        -8.589611435170683
      ],
      [
        "▁совершенно",
        -8.592487248681401
      ],
      [
        "▁представля",
        -8.592487393804085
      ],
      [
        "▁женщин",
        -8.596893484564998
      ],
      [
        "▁много",
        -8.597690448191052
      ],
      [
        "▁красн",
        -8.597774199959398
      ],
      [
        "▁счастлив",
        -8.601318486692353
      ],
      [
        "▁l’",
        -8.601363710565145
      ],
      [
        "▁взял",
        -8.603109853092946
      ],
      [
        "▁звук",
        -8.605773739226647
      ],
      [
        "▁дур",
        -8.608230879274647
      ],
      [
        "▁недо",
        -8.612055675957427
      ],
      [
        "▁очевидно",
        -8.61471035345254
      ],
      [
        "▁стоя",
        -8.615438550415593
      ],
      [
        "▁нельзя",
        -8.619225158571062
      ],
      [
        "▁mon",
        -8.619294149757796
      ],
      [
        "▁видимо",
        -8.619351549408579
      ],
      [
        "▁улыбкои",
        -8.620294291008452
      ],
      [
        "[3",
        -8.624044878518074
      ],
      [
        "▁обраща",
        -8.628318746190423
      ],
      [
        "▁стран",
        -8.628465910077763
      ],
      [
        "▁которым",
        -8.632852208301657
      ],
      [
        "▁губ",
        -8.63465071082771
      ],
      [
        "▁весь",
        -8.637498352122545
      ],
      [
        "ливо",
        -8.638679748647213
      ],
      [
        "роме",
        -8.639723566132126
      ],
      [
        "ась",
        -8.64098946663568
      ],
      [
        "▁необходим",
        -8.642046855273511
      ],
      [
        "▁di",
        -8.648486395271387
      ],
      [
        "▁государя",
        -8.656000545066131
      ],
      [
        "▁минут",
        -8.659764827064077
      ],
      [
        "▁стро",
        -8.663501260321937
      ],
      [
        "▁сражения",
        -8.665414859492746
      ],
      [
        "▁москве",
        -8.674913777294513
      ],
      [
        "▁страшн",
        -8.674929506705015
      ],
      [
        "▁можно",
        -8.675078280856075
      ],
      [
        "▁ответ",
        -8.680908627920111
      ],
      [
        "▁воиск",
        -8.691284162103903
      ],
      [
        "▁должен",
        -8.694195857459327
      ],
      [
        "▁благо",
        -8.694290163940721
      ],
      [
        "▁ужас",
        -8.699099919965734
      ],
      [
        "▁рассказ",
        -8.701635341237726
      ],
      [
        "▁быстро",
        -8.70890482740346
      ],
      [
        "ская",
        -8.712328174642131
      ],
      [
        "▁приехал",
        -8.713854213476363
      ],
      [
        "▁тысяч",
        -8.714093983952484
      ],
      [
        "▁– что",
        -8.71895305434316
      ],
      [
        "▁слез",
        -8.71901385833947
      ],
      [
        "▁собои",
        -8.719330720879135
      ],
      [
        "десят",
        -8.72011416418832
      ],
      [
        "▁господ",
        -8.724022628902247
      ],
      [
        "▁тихо",
        -8.724135748003686
      ],
      [
        "▁– ну,",
        -8.726106290449787
      ],
      [
        "▁велик",
        -8.727903777305142
      ],
      [
        "вину",
        -8.729637369143123
      ],
      [
        "pe",
        -8.730222489461662
      ],
      [
        "▁вышел",
        -8.734447464089051
      ],
      [
        "▁слышал",
        -8.737679402460973
      ],
      [
        "▁смотр",
        -8.741989766451702
      ],
      [
        "ению",
        -8.74685438979159
      ],
      [
        "▁письмо",
        -8.749206567324848
      ],
      [
        "▁подошел",
        -8.759547536378568
      ],
      [
        "▁если",
        -8.764918821872204
      ],
      [
        "eur",
        -8.765037953708497
      ],
      [
        "ских",
        -8.765881314587748
      ],
      [
        "ставил",
        -8.768601183380511
      ],
      [
        "▁москвы",
        -8.775248168922346
      ],
      [
        "▁труд",
        -8.7767139834913
      ],
      [
        "▁призна",
        -8.780969813387701
      ],
      [
        "▁плен",
        -8.783259935825274
      ],
      [
        "ant",
        -8.78945002193083
      ],
      [
        "▁гусар",
        -8.791207180619361
      ],
      [
        "▁лошадь",
        -8.801987632071654
      ],
      [
        "▁выход",
        -8.812055242349395
      ],
      [
        "▁подумал",
        -8.812962425451321
      ],
      [
        "▁рассказыва",
        -8.817036852769071
      ],
      [
        "▁испуга",
        -8.81838168786539
      ],
      [
        "▁лучше",
        -8.823906458505578
      ],
      [
        "▁петя",
        -8.82463223721242
      ],
      [
        "▁куда",
        -8.825896656646025
      ],
      [
        "▁so",
        -8.826566769732894
      ],
      [
        "▁болконск",
        -8.829462204525756
      ],
      [
        "▁первыи",
        -8.835093820471368
      ],
      [
        "▁никто",
        -8.835289212113024
      ],
      [
        "▁показал",
        -8.835737277577216
      ],
      [
        "▁никак",
        -8.836562685105632
      ],
      [
        "▁закон",
        -8.837502127839091
      ],
      [
        "▁улыбаясь",
        -8.840693087538352
      ],
      [
        "▁тотчас",
        -8.8463216250843
      ],
      [
        "▁высок",
        -8.84684585368986
      ],
      [
        "▁князю",
        -8.851998067356522
      ],
      [
        "▁готов",
        -8.852849728815187
      ],
      [
        "▁черн",
        -8.857490051955835
      ],
      [
        "▁тебя",
        -8.858039407986865
      ],
      [
        "казать",
        -8.858315470698425
      ],
      [
        "▁глаз",
        -8.869752590229949
      ],
      [
        "▁измен",
        -8.86989057854548
      ],
      [
        "▁pas",
        -8.87015387232081
      ],
      [
        "▁называ",
        -8.871859855864919
      ],
      [
        "▁совсем",
        -8.875069036331219
      ],
      [
        "ющих",
        -8.881009503061726
      ],
      [
        "▁видеть",
        -8.881630288397925
      ],
      [
        "▁увидал",
        -8.886788987376734
      ],
      [
        "▁наташе",
        -8.88713380566721
      ],
      [
        "▁взгляну",
        -8.898653620699065
      ],
      [
        "▁доктор",
        -8.898666139549828
      ],
      [
        "▁близ",
        -8.898913413170263
      ],
      [
        "▁плеч",
        -8.904735020527573
      ],
      [
        "ющим",
        -8.904996737089638
      ],
      [
        "▁душе",
        -8.905182269539434
      ],
      [
        "▁ведь",
        -8.910738511666995
      ],
      [
        "▁начина",
        -8.912256356403024
      ],
      [
        "▁прямо",
        -8.916727431140764
      ],
      [
        "▁поступ",
        -8.916846718048028
      ],
      [
        "▁понял",
        -8.917198698295515
      ],
      [
        "▁прежн",
        -8.917737317755968
      ],
      [
        "sse",
        -8.918274798164212
      ],
      [
        "▁здесь",
        -8.928958777731054
      ],
      [
        "▁лошади",
        -8.92895890759771
      ],
      [
        "▁известн",
        -8.928972217099936
      ],
      [
        "▁главнокомандующ",
        -8.935131551482474
      ],
      [
        "▁элен",
        -8.935136059539026
      ],
      [
        "▁дверь",
        -8.935285498585667
      ],
      [
        "▁занима",
        -8.935328131629092
      ],
      [
        "▁багратион",
        -8.941342731770659
      ],
      [
        "▁движение",
        -8.941342788003304
      ],
      [
        "▁василии",
        -8.941409269055463
      ],
      [
        "▁любил",
        -8.94810740876914
      ],
      [
        "▁москву",
        -8.9538822531782
      ],
      [
        "▁счита",
        -8.96732606213472
      ],
      [
        "▁головои",
        -8.97944430850306
      ],
      [
        "▁наташи",
        -8.979705671768881
      ],
      [
        "▁казак",
        -8.986065586178523
      ],
      [
        "▁существ",
        -8.98663131677091
      ],
      [
        "▁последни",
        -8.987649131262273
      ],
      [
        "▁комнаты",
        -8.999051753231665
      ],
      [
        "▁радостно",
        -8.999054873323308
      ],
      [
        "▁поехал",
        -8.99906656606977
      ],
      [
        "говорил",
        -8.999209156006167
      ],
      [
        "▁командир",
        -9.000765046197483
      ],
      [
        "▁приход",
        -9.003618016600875
      ],
      [
        "▁алпатыч",
        -9.005673368960174
      ],
      [
        "▁объясн",
        -9.00567356898021
      ],
      [
        "▁положение",
        -9.005675396425037
      ],
      [
        "ющии",
        -9.005851598768434
      ],
      [
        "▁мужик",
        -9.025575979086302
      ],
      [
        "▁кричал",
        -9.025828159127919
      ],
      [
        "▁холод",
        -9.026364437671692
      ],
      [
        "▁– нет,",
        -9.032686353961513
      ],
      [
        "▁равно",
        -9.032762078782923
      ],
      [
        "▁m-",
        -9.032908333587422
      ],
      [
        "▁представи",
        -9.044032270502267
      ],
      [
        "▁движения",
        -9.04635685275277
      ],
      [
        "▁интерес",
        -9.04635699261349
      ],
      [
        "▁спас",
        -9.050513558058332
      ],
      [
        "y",
        -9.053301233047463
      ],
      [
        "▁александр",
        -9.053301233047584
      ],
      [
        "▁охот",
        -9.053405834705877
      ],
      [
        "▁прибавил",
        -9.067336742678926
      ],
      [
        "▁анатоль",
        -9.067336998117828
      ],
      [
        "▁двух",
        -9.067359137713002
      ],
      [
        "▁броси",
        -9.06746780034159
      ],
      [
        "▁сеичас",
        -9.074432449691958
      ],
      [
        "▁историк",
        -9.081607395933204
      ],
      [
        "▁par",
        -9.081696564077905
      ],
      [
        "▁возможно",
        -9.088766820765981
      ],
      [
        "отступ",
        -9.093772237684021
      ],
      [
        "▁побед",
        -9.096348512116382
      ],
      [
        "▁кабинет",
        -9.10331148962931
      ],
      [
        "▁вокруг",
        -9.103312911419897
      ],
      [
        "▁лежал",
        -9.103438041571856
      ],
      [
        "▁закричал",
        -9.110664433547544
      ],
      [
        "▁завтра",
        -9.110702489359216
      ],
      [
        "▁красив",
        -9.125616334317808
      ],
      [
        "ходить",
        -9.130652922559904
      ],
      [
        "▁блестя",
        -9.133053432575085
      ],
      [
        "▁страх",
        -9.133141084195685
      ],
      [
        "▁посмотрел",
        -9.140629031003218
      ],
      [
        "▁прекрасн",
        -9.140629662253735
      ],
      [
        "▁марье",
        -9.140636759820113
      ],
      [
        "▁d’",
        -9.140693952096466
      ],
      [
        "▁растопчин",
        -9.148262637292751
      ],
      [
        "[",
        -9.154993160544361
      ],
      [
        "▁комнате",
        -9.155956507826403
      ],
      [
        "▁иногда",
        -9.155968164176478
      ],
      [
        "▁окруж",
        -9.163712483985893
      ],
      [
        "▁любви",
        -9.163747951750313
      ],
      [
        "▁поспешно",
        -9.171519381345986
      ],
      [
        "▁комнату",
        -9.171519686963203
      ],
      [
        "▁карт",
        -9.172412853102966
      ],
      [
        "▁cher",
        -9.179449225803095
      ],
      [
        "смеш",
        -9.185216761243097
      ],
      [
        "▁bourienne",
        -9.187329887641802
      ],
      [
        "▁деиствительно",
        -9.187329888138885
      ],
      [
        "▁испытыва",
        -9.18732990015561
      ],
      [
        "▁княжны",
        -9.187329924538204
      ],
      [
        "▁глуп",
        -9.187341046324637
      ],
      [
        "▁оживлен",
        -9.195334504240721
      ],
      [
        "▁скоро",
        -9.195539765799987
      ],
      [
        "▁любовь",
        -9.20339856825655
      ],
      [
        "▁выража",
        -9.203442481796102
      ],
      [
        "оставлен",
        -9.208124440551902
      ],
      [
        "▁невольно",
        -9.211532041768148
      ],
      [
        "▁каждыи",
        -9.219722683119036
      ],
      [
        "▁сражение",
        -9.21972523391325
      ],
      [
        "▁нынче",
        -9.219726511596011
      ],
      [
        "▁оглядыва",
        -9.220668144821955
      ],
      [
        "▁балашев",
        -9.22799074432027
      ],
      [
        "▁здоров",
        -9.236319294686776
      ],
      [
        "▁qui",
        -9.244722363870935
      ],
      [
        "▁pour",
        -9.244724945872763
      ],
      [
        "▁встрети",
        -9.245050801717554
      ],
      [
        "▁указыва",
        -9.250328606784416
      ],
      [
        "▁слишком",
        -9.25319840414396
      ],
      [
        "▁позвол",
        -9.253409882349057
      ],
      [
        "скакал",
        -9.255218357686138
      ],
      [
        "▁наташу",
        -9.261765792462
      ],
      [
        "▁опас",
        -9.261801782100576
      ],
      [
        "▁направлен",
        -9.262328273609246
      ],
      [
        "▁кавалер",
        -9.27036942063883
      ],
      [
        "слышались",
        -9.274111602890699
      ],
      [
        "▁виноват",
        -9.279065470696196
      ],
      [
        "▁замеча",
        -9.279078551147192
      ],
      [
        "▁лошадеи",
        -9.28783226415279
      ],
      [
        "▁начальник",
        -9.287842434081883
      ],
      [
        "▁спрашивал",
        -9.29668180350844
      ],
      [
        "▁россии",
        -9.296682624732892
      ],
      [
        "▁марьи",
        -9.296689825010496
      ],
      [
        "▁работ",
        -9.296740759138494
      ],
      [
        "▁удовольстви",
        -9.305610349295613
      ],
      [
        "▁княгиня",
        -9.305610349414271
      ],
      [
        "▁люблю",
        -9.314633467338682
      ],
      [
        "▁слушал",
        -9.31471094518746
      ],
      [
        "▁диван",
        -9.314742165273682
      ],
      [
        "▁бонапарт",
        -9.323710268251883
      ],
      [
        "▁кажется",
        -9.323716249003244
      ],
      [
        "▁решительн",
        -9.324052671731373
      ],
      [
        "▁середин",
        -9.332885429875015
      ],
      [
        "▁безухов",
        -9.332889311057475
      ],
      [
        "▁почувствовал",
        -9.342143838643228
      ],
      [
        "▁мундир",
        -9.342143965898831
      ],
      [
        "▁повторил",
        -9.342144871896139
      ],
      [
        "▁наконец",
        -9.34214556447943
      ],
      [
        "z",
        -9.349930070046547
      ],
      [
        "▁nous",
        -9.351489984798615
      ],
      [
        "▁прелест",
        -9.351662577657898
      ],
      [
        "▁андрею",
        -9.360923697270767
      ],
      [
        "▁историческ",
        -9.360925177795163
      ],
      [
        "▁соглас",
        -9.360935359003054
      ],
      [
        "▁послышал",
        -9.368799596063411
      ],
      [
        "▁удивлен",
        -9.370450481763353
      ],
      [
        "▁собак",
        -9.370603254505674
      ],
      [
        "▁австрии",
        -9.380062896008454
      ],
      [
        "▁княжне",
        -9.380062898004898
      ],
      [
        "k",
        -9.389771527239178
      ],
      [
        "▁серьезн",
        -9.389771627016142
      ],
      [
        "▁бледн",
        -9.39960082717488
      ],
      [
        "▁думаю",
        -9.399625626315375
      ],
      [
        "▁михаил",
        -9.409467165650142
      ],
      [
        "▁все-таки",
        -9.40947667914233
      ],
      [
        "▁товарищ",
        -9.409482477897058
      ],
      [
        "▁павловна",
        -9.419476470224087
      ],
      [
        "▁фланг",
        -9.419476583318785
      ],
      [
        "▁tout",
        -9.419489748398567
      ],
      [
        "▁увидав",
        -9.41951416588391
      ],
      [
        "▁торжеств",
        -9.421307024182624
      ],
      [
        "▁смоленск",
        -9.429577471907397
      ],
      [
        "▁сколько",
        -9.429580499955577
      ],
      [
        "▁настоящ",
        -9.439836364639735
      ],
      [
        "▁команд",
        -9.468296272743544
      ],
      [
        "▁девушк",
        -9.4710351293532
      ],
      [
        "▁случаи",
        -9.471035543109885
      ],
      [
        "▁меньш",
        -9.471061102094932
      ],
      [
        "▁события",
        -9.481672160442308
      ],
      [
        "▁неожиданно",
        -9.492424779626514
      ],
      [
        "▁поцеловал",
        -9.492426100013516
      ],
      [
        "▁мальчик",
        -9.503298250822827
      ],
      [
        "▁двига",
        -9.503302816856555
      ],
      [
        "▁неприятель",
        -9.514283386065099
      ],
      [
        "▁спокоино",
        -9.514287652130797
      ],
      [
        "▁государю",
        -9.525394465307883
      ],
      [
        "▁требова",
        -9.525402041578994
      ],
      [
        "▁сиятельство",
        -9.536630445946127
      ],
      [
        "▁вспомнил",
        -9.536633323881809
      ],
      [
        "▁невозможно",
        -9.547994056240054
      ],
      [
        "▁побежал",
        -9.547994335940672
      ],
      [
        "▁оглянулся",
        -9.559488528602992
      ],
      [
        "следствие",
        -9.559489973965636
      ],
      [
        "▁dans",
        -9.571116217244079
      ],
      [
        "▁фигур",
        -9.571116383652722
      ],
      [
        "▁неприятеля",
        -9.582880922443042
      ],
      [
        "▁капитан",
        -9.59478597517144
      ],
      [
        "▁исполнен",
        -9.594812518895282
      ],
      [
        "▁напротив,",
        -9.606833877115946
      ],
      [
        "▁бенигсен",
        -9.619028999396694
      ],
      [
        "▁уничтож",
        -9.61902902211462
      ],
      [
        "▁неизвестн",
        -9.619029027020918
      ],
      [
        "▁людьми",
        -9.63137467908659
      ],
      [
        "▁неприятно",
        -9.631375210821393
      ],
      [
        "▁деятельность",
        -9.631375822271613
      ],
      [
        "▁назначен",
        -9.631383508016931
      ],
      [
        "▁андрее",
        -9.643875906548502
      ],
      [
        "▁дмитриевна",
        -9.69549832599495
      ],
      [
        "▁шепотом",
        -9.695498333680693
      ],
      [
        "▁plus",
        -9.695498346808492
      ],
      [
        "▁билибин",
        -9.708831806515438
      ],
      [
        "▁курагин",
        -9.72234551657488
      ],
      [
        "▁беспрестанно",
        -9.736043802992528
      ],
      [
        "▁разговарива",
        -9.73604404814227
      ],
      [
        "▁предполага",
        -9.764017202390392
      ],
      [
        "▁подъехал",
        -9.764017202602691
      ],
      [
        "глядываясь",
        -9.82069919141398
      ],
      [
        "▁государств",
        -9.83757845689173
      ],
      [
        "▁определен",
        -9.837578902686136
      ],
      [
        "▁эскадрон",
        -9.852963052842583
      ],
      [
        "▁характер",
        -9.852963053260789
      ],
      [
        "▁обыкновенно",
        -9.884461068733536
      ],
      [
        "▁рассматрива",
        -9.884461068988049
      ],
      [
        "▁нравственн",
        -9.900592113807807
      ],
      [
        "▁происходил",
        -9.91698354381154
      ],
      [
        "▁взволнован",
        -9.93365021026991
      ],
      [
        "▁бородинско",
        -9.933650309673599
      ],
      [
        "▁единственн",
        -9.93365033238473
      ],
      [
        "▁prince",
        -9.950599362803837
      ],
      [
        "▁homme",
        -9.9505993628918
      ],
      [
        "▁по-французски",
        -9.967840742114081
      ],
      [
        "▁превосход",
        -9.985384601787233
      ],
      [
        "▁аустерлиц",
        -10.058810006578275
      ],
      [
        "▁физическ",
        -10.058810018779331
      ],
      [
        "▁человеческо",
        -10.078040777911166
      ],
      [
        "▁l’empereur",
        -10.097648618217011
      ],
      [
        "▁необыкновенно",
        -10.27011114989832
      ],
      [
        "▁унтер-офицер",
        -10.569608761109915
      ],
      [
        "„",
        -11.345291629984127
      ],
      [
        "“",
        -11.345291629984128
      ],
      [
        "‑",
        -11.493643278335838
      ],
      [
        "—",
        -12.763520623265858
      ],
      [
        "*",
        -13.096853956599197
      ],
      [
        "ß",
        -13.0968539565992
      ],
      [
        "_",
        -13.596853956599164
      ],
      [
        "=",
        -13.596853956599201
      ],
      [
        "6",
        -14.5959539565992
      ],
      [
        "8",
        -14.5960539565992
      ],
      [
        "2",
        -14.5961539565992
      ],
      [
        "œ",
        -14.596253956599199
      ],
      [
        "(",
        -14.596353956599199
      ],
      [
        "w",
        -14.596453956599198
      ],
      [
        "«",
        -14.5965539565992
      ],
      [
        "]",
        -14.5966539565992
      ],
      [
        "1",
        -14.5967539565992
      ],
      [
        "№",
        -14.596853956599176
      ],
      [
        ">",
        -14.596853956599189
      ],
      [
        "q",
        -14.5968539565992
      ],
      [
        "°",
        -14.5968539565992
      ],
      [
        "<",
        -14.5968539565992
      ],
      [
        "/",
        -14.5968539565992
      ]
    ],
    "byte_fallback": false
  }
}