{
  "version": "1.0",
  "truncation": null,
  "padding": null,
  "added_tokens": [
    {
      "id": 0,
      "content": "[UNK]",
      "single_word": false,
      "lstrip": false,
      "rstrip": false,
      "normalized": false,
      "special": true
    },
    {
      "id": 1,
      "content": "[CLS]",
      "single_word": false,
      "lstrip": false,
      "rstrip": false,
      "normalized": false,
      "special": true
    },
    {
      "id": 2,
      "content": "[SEP]",
      "single_word": false,
      "lstrip": false,
      "rstrip": false,
      "normalized": false,
      "special": true
    },
    {
      "id": 3,
      "content": "[PAD]",
      "single_word": false,
      "lstrip": false,
      "rstrip": false,
      "normalized": false,
      "special": true
    },
    {
      "id": 4,
      "content": "[MASK]",
      "single_word": false,
      "lstrip": false,
      "rstrip": false,
      "normalized": false,
      "special": true
    }
  ],
  "normalizer": {
    "type": "Sequence",
    "normalizers": [
      {
        "type": "NFD"
      },
      {
        "type": "Lowercase"
      },
      {
        "type": "StripAccents"
      }
    ]
  },
  "pre_tokenizer": {
    "type": "Whitespace"
  },
  "post_processor": null,
  "decoder": {
    "type": "WordPiece",
    "prefix": "##",
    "cleanup": true
  },
  "model": {
    "type": "WordPiece",
    "unk_token": "[UNK]",
    "continuing_subword_prefix": "##",
    "max_input_chars_per_word": 100,
    "vocab": {
      "[UNK]": 0,
      "[CLS]": 1,
      "[SEP]": 2,
      "[PAD]": 3,
      "[MASK]": 4,
      "!": 5,
      "(": 6,
      ")": 7,
      "*": 8,
      ",": 9,
      "-": 10,
      ".": 11,
      "/": 12,
      "0": 13,
      "1": 14,
      "2": 15,
      "3": 16,
      "4": 17,
      "5": 18,
      "6": 19,
      "7": 20,
      "8": 21,
      "9": 22,
      ":": 23,
      ";": 24,
      "<": 25,
      "=": 26,
      ">": 27,
      "?": 28,
      "[": 29,
      "]": 30,
      "_": 31,
      "a": 32,
      "b": 33,
      "c": 34,
      "d": 35,
      "e": 36,
      "f": 37,
      "g": 38,
      "h": 39,
      "i": 40,
      "j": 41,
      "k": 42,
      "l": 43,
      "m": 44,
      "n": 45,
      "o": 46,
      "p": 47,
      "q": 48,
      "r": 49,
      "s": 50,
      "t": 51,
      "u": 52,
      "v": 53,
      "w": 54,
      "x": 55,
      "y": 56,
      "z": 57,
      "«": 58,
      "°": 59,
      "»": 60,
      "ß": 61,
      "œ": 62,
      "а": 63,
      "б": 64,
      "в": 65,
      "г": 66,
      "д": 67,
      "е": 68,
      "ж": 69,
      "з": 70,
      "и": 71,
      "к": 72,
      "л": 73,
      "м": 74,
      "н": 75,
      "о": 76,
      "п": 77,
      "р": 78,
      "с": 79,
      "т": 80,
      "у": 81,
      "ф": 82,
      "х": 83,
      "ц": 84,
      "ч": 85,
      "ш": 86,
      "щ": 87,
      "ъ": 88,
      "ы": 89,
      "ь": 90,
      "э": 91,
      "ю": 92,
      "я": 93,
      "‑": 94,
      "–": 95,
      "—": 96,
      "’": 97,
      "“": 98,
      "„": 99,
      "…": 100,
      "№": 101,
      "##о": 102,
      "##р": 103,
      "##д": 104,
      "##г": 105,
      "##л": 106,
      "##а": 107,
      "##б": 108,
      "##е": 109,
      "##в": 110,
      "##ш": 111,
      "##и": 112,
      "##м": 113,
      "##e": 114,
      "##r": 115,
      "##d": 116,
      "##i": 117,
      "##n": 118,
      "##t": 119,
      "##п": 120,
      "##х": 121,
      "##ж": 122,
      "##т": 123,
      "##н": 124,
      "##ч": 125,
      "##ы": 126,
      "##к": 127,
      "##з": 128,
      "##у": 129,
      "##7": 130,
      "##3": 131,
      "##o": 132,
      "##s": 133,
      "##с": 134,
      "##ь": 135,
      "##ф": 136,
      "##ю": 137,
      "##я": 138,
      "##u": 139,
      "##a": 140,
      "##ц": 141,
      "##щ": 142,
      "##p": 143,
      "##l": 144,
      "##c": 145,
      "##9": 146,
      "##h": 147,
      "##g": 148,
      "##v": 149,
      "##ъ": 150,
      "##0": 151,
      "##b": 152,
      "##5": 153,
      "##m": 154,
      "##f": 155,
      "##q": 156,
      "##8": 157,
      "##1": 158,
      "##)": 159,
      "##,": 160,
      "##.": 161,
      "##6": 162,
      "##x": 163,
      "##k": 164,
      "##»": 165,
      "##[": 166,
      "##z": 167,
      "##4": 168,
      "##y": 169,
      "##2": 170,
      "##э": 171,
      "##w": 172,
      "##;": 173,
      "##…": 174,
      "##j": 175,
      "##ß": 176,
      "##“": 177,
      "##œ": 178,
      "##–": 179,
      "##!": 180,
      "##?": 181,
      "##«": 182,
      "##>": 183,
      "##„": 184,
      "##_": 185,
      "##*": 186,
      "##:": 187,
      "##то": 188,
      "##ал": 189,
      "##ст": 190,
      "##ен": 191,
      "по": 192,
      "##но": 193,
      "##ер": 194,
      "##го": 195,
      "не": 196,
      "##ел": 197,
      "на": 198,
      "##ов": 199,
      "##ол": 200,
      "##ра": 201,
      "##ро": 202,
      "##ри": 203,
      "##ть": 204,
      "##на": 205,
      "##ка": 206,
      "##ко": 207,
      "##ил": 208,
      "что": 209,
      "##во": 210,
      "##ре": 211,
      "##ни": 212,
      "бы": 213,
      "##ся": 214,
      "##ак": 215,
      "##да": 216,
      "##сь": 217,
      "##ны": 218,
      "##ет": 219,
      "то": 220,
      "##ла": 221,
      "он": 222,
      "ко": 223,
      "##ени": 224,
      "##ва": 225,
      "##ми": 226,
      "##ем": 227,
      "за": 228,
      "##ли": 229,
      "##ня": 230,
      "от": 231,
      "ра": 232,
      "##ки": 233,
      "##та": 234,
      "при": 235,
      "вс": 236,
      "##ос": 237,
      "##ди": 238,
      "##ло": 239,
      "##ру": 240,
      "##каз": 241,
      "##ну": 242,
      "это": 243,
      "##еи": 244,
      "##му": 245,
      "во": 246,
      "ни": 247,
      "##ши": 248,
      "##ти": 249,
      "вы": 250,
      "##ви": 251,
      "как": 252,
      "##ала": 253,
      "все": 254,
      "##ля": 255,
      "##оль": 256,
      "про": 257,
      "его": 258,
      "##ры": 259,
      "кото": 260,
      "##мо": 261,
      "##ед": 262,
      "##не": 263,
      "об": 264,
      "сво": 265,
      "##али": 266,
      "##ово": 267,
      "##ма": 268,
      "но": 269,
      "до": 270,
      "##ест": 271,
      "##ав": 272,
      "##до": 273,
      "со": 274,
      "мо": 275,
      "сказ": 276,
      "кня": 277,
      "из": 278,
      "##ес": 279,
      "##тел": 280,
      "ка": 281,
      "##ать": 282,
      "##чи": 283,
      "##хо": 284,
      "под": 285,
      "##ез": 286,
      "она": 287,
      "##сти": 288,
      "пер": 289,
      "##его": 290,
      "##ча": 291,
      "так": 292,
      "сл": 293,
      "##енно": 294,
      "##сть": 295,
      "раз": 296,
      "было": 297,
      "##еб": 298,
      "##по": 299,
      "##ша": 300,
      "пре": 301,
      "ст": 302,
      "##гда": 303,
      "##де": 304,
      "##ку": 305,
      "ли": 306,
      "##сл": 307,
      "##ьер": 308,
      "гово": 309,
      "##ря": 310,
      "пьер": 311,
      "##олько": 312,
      "ви": 313,
      "##жи": 314,
      "##дел": 315,
      "##ду": 316,
      "##ения": 317,
      "##кои": 318,
      "ру": 319,
      "хо": 320,
      "##ты": 321,
      "княз": 322,
      "##ень": 323,
      "сказал": 324,
      "##ше": 325,
      "##тель": 326,
      "##ам": 327,
      "дру": 328,
      "##ас": 329,
      "лю": 330,
      "##ар": 331,
      "##ту": 332,
      "го": 333,
      "##пер": 334,
      "##бы": 335,
      "##щи": 336,
      "##ги": 337,
      "##те": 338,
      "##за": 339,
      "говори": 340,
      "##ение": 341,
      "же": 342,
      "##ис": 343,
      "сто": 344,
      "##ели": 345,
      "##дно": 346,
      "которы": 347,
      "ан": 348,
      "##или": 349,
      "##же": 350,
      "##га": 351,
      "##ме": 352,
      "##ало": 353,
      "ему": 354,
      "##уд": 355,
      "ду": 356,
      "##оло": 357,
      "ее": 358,
      "##ств": 359,
      "##ила": 360,
      "бо": 361,
      "##вы": 362,
      "##ски": 363,
      "те": 364,
      "рас": 365,
      "##осто": 366,
      "##ова": 367,
      "да": 368,
      "##бо": 369,
      "только": 370,
      "##вши": 371,
      "был": 372,
      "##ста": 373,
      "##нц": 374,
      "##енны": 375,
      "##вер": 376,
      "##ще": 377,
      "пол": 378,
      "ис": 379,
      "зна": 380,
      "##ве": 381,
      "себ": 382,
      "гра": 383,
      "ста": 384,
      "сп": 385,
      "дел": 386,
      "которо": 387,
      "##вая": 388,
      "ку": 389,
      "##об": 390,
      "##жно": 391,
      "##ou": 392,
      "##елов": 393,
      "оп": 394,
      "##раж": 395,
      "князь": 396,
      "##дре": 397,
      "гол": 398,
      "##ды": 399,
      "##рем": 400,
      "андре": 401,
      "гла": 402,
      "для": 403,
      "лиц": 404,
      "вз": 405,
      "граф": 406,
      "##вал": 407,
      "ната": 408,
      "##re": 409,
      "##ву": 410,
      "нап": 411,
      "##еж": 412,
      "им": 413,
      "##нои": 414,
      "##ком": 415,
      "свои": 416,
      "ми": 417,
      "##став": 418,
      "##ом": 419,
      "##из": 420,
      "##гу": 421,
      "са": 422,
      "посл": 423,
      "##нов": 424,
      "##рос": 425,
      "##ным": 426,
      "##аль": 427,
      "##елове": 428,
      "##би": 429,
      "еще": 430,
      "фра": 431,
      "челове": 432,
      "##рав": 433,
      "пред": 434,
      "##мот": 435,
      "##ая": 436,
      "когда": 437,
      "##оле": 438,
      "##нул": 439,
      "нес": 440,
      "##ться": 441,
      "чу": 442,
      "франц": 443,
      "##ился": 444,
      "##ныи": 445,
      "##ль": 446,
      "##кого": 447,
      "буд": 448,
      "##шел": 449,
      "##тельно": 450,
      "ты": 451,
      "францу": 452,
      "##ев": 453,
      "та": 454,
      "##ле": 455,
      "пос": 456,
      "росто": 457,
      "##гля": 458,
      "боль": 459,
      "##es": 460,
      "##ех": 461,
      "##па": 462,
      "##лы": 463,
      "эти": 464,
      "##on": 465,
      "##ход": 466,
      "мы": 467,
      "врем": 468,
      "ос": 469,
      "ну": 470,
      "чтобы": 471,
      "##ении": 472,
      "они": 473,
      "##ные": 474,
      "##en": 475,
      "мар": 476,
      "француз": 477,
      "тепер": 478,
      "##ров": 479,
      "гос": 480,
      "##ство": 481,
      "##иц": 482,
      "него": 483,
      "слу": 484,
      "##ное": 485,
      "теперь": 486,
      "##ило": 487,
      "того": 488,
      "была": 489,
      "были": 490,
      "пото": 491,
      "##ние": 492,
      "##ья": 493,
      "##ного": 494,
      "оч": 495,
      "дол": 496,
      "андреи": 497,
      "княж": 498,
      "##ять": 499,
      "##чал": 500,
      "##ют": 501,
      "##ков": 502,
      "мог": 503,
      "##дин": 504,
      "чув": 505,
      "##рел": 506,
      "ник": 507,
      "му": 508,
      "сов": 509,
      "##ния": 510,
      "##ке": 511,
      "##стви": 512,
      "одно": 513,
      "вер": 514,
      "##алось": 515,
      "##уп": 516,
      "##си": 517,
      "##ался": 518,
      "##гово": 519,
      "наташа": 520,
      "##er": 521,
      "##уда": 522,
      "себя": 523,
      "##ались": 524,
      "##ется": 525,
      "##ят": 526,
      "##еш": 527,
      "этого": 528,
      "мне": 529,
      "ва": 530,
      "их": 531,
      "воз": 532,
      "стра": 533,
      "de": 534,
      "##ных": 535,
      "или": 536,
      "##ца": 537,
      "##нима": 538,
      "ло": 539,
      "том": 540,
      "быть": 541,
      "расс": 542,
      "##чего": 543,
      "##ная": 544,
      "обра": 545,
      "##пу": 546,
      "##еня": 547,
      "##лыб": 548,
      "сам": 549,
      "уже": 550,
      "##ую": 551,
      "улыб": 552,
      "ба": 553,
      "сол": 554,
      "си": 555,
      "##ему": 556,
      "глаза": 557,
      "##ai": 558,
      "##тер": 559,
      "ма": 560,
      "##зна": 561,
      "мос": 562,
      "тем": 563,
      "сдел": 564,
      "время": 565,
      "друго": 566,
      "##жа": 567,
      "сказала": 568,
      "ве": 569,
      "##ых": 570,
      "##руг": 571,
      "без": 572,
      "##ную": 573,
      "##вет": 574,
      "ту": 575,
      "##казы": 576,
      "##деи": 577,
      "госуда": 578,
      "##лю": 579,
      "##ыи": 580,
      "которые": 581,
      "люб": 582,
      "##фиц": 583,
      "офиц": 584,
      "##нии": 585,
      "себе": 586,
      "##кое": 587,
      "никол": 588,
      "##ходи": 589,
      "##нно": 590,
      "вас": 591,
      "еи": 592,
      "бу": 593,
      "оста": 594,
      "##чес": 595,
      "##ствов": 596,
      "говорил": 597,
      "##кая": 598,
      "ар": 599,
      "##ела": 600,
      "моск": 601,
      "де": 602,
      "##он": 603,
      "нет": 604,
      "жиз": 605,
      "чер": 606,
      "солда": 607,
      "чем": 608,
      "##дя": 609,
      "которыи": 610,
      "##мал": 611,
      "##вать": 612,
      "пу": 613,
      "##ыш": 614,
      "су": 615,
      "##сто": 616,
      "офицер": 617,
      "##жет": 618,
      "вот": 619,
      "##ступ": 620,
      "сер": 621,
      "меня": 622,
      "##an": 623,
      "##ело": 624,
      "ус": 625,
      "##бу": 626,
      "##рас": 627,
      "##ром": 628,
      "опять": 629,
      "каз": 630,
      "##le": 631,
      "##лож": 632,
      "##мер": 633,
      "qu": 634,
      "##шо": 635,
      "этот": 636,
      "перед": 637,
      "наполе": 638,
      "пет": 639,
      "##ена": 640,
      "рус": 641,
      "голос": 642,
      "од": 643,
      "##ющи": 644,
      "##тори": 645,
      "##ан": 646,
      "##лу": 647,
      "смот": 648,
      "##ель": 649,
      "поч": 650,
      "##шего": 651,
      "##чно": 652,
      "всех": 653,
      "##туз": 654,
      "ничего": 655,
      "неп": 656,
      "княжна": 657,
      "бес": 658,
      "##ым": 659,
      "##рая": 660,
      "##ous": 661,
      "##дов": 662,
      "потому": 663,
      "##ит": 664,
      "само": 665,
      "хоро": 666,
      "кутуз": 667,
      "очень": 668,
      "вд": 669,
      "##te": 670,
      "##колько": 671,
      "##ял": 672,
      "##ман": 673,
      "есть": 674,
      "##ба": 675,
      "##жели": 676,
      "после": 677,
      "##вест": 678,
      "##алась": 679,
      "##ха": 680,
      "гу": 681,
      "##нь": 682,
      "##ства": 683,
      "подо": 684,
      "##чер": 685,
      "ростов": 686,
      "##ne": 687,
      "воис": 688,
      "своеи": 689,
      "##ками": 690,
      "##скии": 691,
      "##аи": 692,
      "##ые": 693,
      "##ить": 694,
      "кри": 695,
      "жен": 696,
      "##тя": 697,
      "графи": 698,
      "##ением": 699,
      "дви": 700,
      "пла": 701,
      "##нее": 702,
      "##жал": 703,
      "##ег": 704,
      "марья": 705,
      "выс": 706,
      "ком": 707,
      "может": 708,
      "будет": 709,
      "моло": 710,
      "##ского": 711,
      "отве": 712,
      "##пол": 713,
      "##кии": 714,
      "вол": 715,
      "один": 716,
      "##том": 717,
      "##илась": 718,
      "лицо": 719,
      "вдруг": 720,
      "##нал": 721,
      "человек": 722,
      "лоша": 723,
      "##зы": 724,
      "взгля": 725,
      "ним": 726,
      "пере": 727,
      "##кры": 728,
      "тол": 729,
      "##лен": 730,
      "ро": 731,
      "дер": 732,
      "##стро": 733,
      "тре": 734,
      "##ном": 735,
      "надо": 736,
      "ежели": 737,
      "##раз": 738,
      "##ставля": 739,
      "##нулся": 740,
      "##уч": 741,
      "преж": 742,
      "##вшись": 743,
      "будто": 744,
      "##шеи": 745,
      "арми": 746,
      "##им": 747,
      "##прос": 748,
      "##дал": 749,
      "пьера": 750,
      "##пы": 751,
      "##гра": 752,
      "тот": 753,
      "ген": 754,
      "##неи": 755,
      "други": 756,
      "выраж": 757,
      "мину": 758,
      "истори": 759,
      "##стью": 760,
      "людеи": 761,
      "ок": 762,
      "##ехал": 763,
      "нас": 764,
      "доро": 765,
      "сторо": 766,
      "где": 767,
      "##ились": 768,
      "дени": 769,
      "денис": 770,
      "пи": 771,
      "хотел": 772,
      "##лась": 773,
      "мол": 774,
      "сил": 775,
      "##тив": 776,
      "каж": 777,
      "комна": 778,
      "##ову": 779,
      "##авши": 780,
      "##говори": 781,
      "##еди": 782,
      "##чь": 783,
      "генер": 784,
      "сраж": 785,
      "##вали": 786,
      "поня": 787,
      "день": 788,
      "неи": 789,
      "ре": 790,
      "##ете": 791,
      "князя": 792,
      "##олее": 793,
      "##че": 794,
      "##тан": 795,
      "совер": 796,
      "##ин": 797,
      "более": 798,
      "##ными": 799,
      "##дом": 800,
      "##дол": 801,
      "##ri": 802,
      "##беж": 803,
      "##ии": 804,
      "кто": 805,
      "##вно": 806,
      "зам": 807,
      "спрос": 808,
      "##щест": 809,
      "et": 810,
      "##шь": 811,
      "##сли": 812,
      "теб": 813,
      "своего": 814,
      "##шая": 815,
      "зак": 816,
      "##удь": 817,
      "государ": 818,
      "па": 819,
      "сча": 820,
      "кол": 821,
      "видел": 822,
      "особ": 823,
      "вели": 824,
      "вес": 825,
      "##хов": 826,
      "нем": 827,
      "другои": 828,
      "мои": 829,
      "дело": 830,
      "ожи": 831,
      "поз": 832,
      "слова": 833,
      "##кон": 834,
      "##ут": 835,
      "всегда": 836,
      "свою": 837,
      "доло": 838,
      "ша": 839,
      "##oi": 840,
      "вопрос": 841,
      "несколько": 842,
      "##ющ": 843,
      "впер": 844,
      "николаи": 845,
      "##ясь": 846,
      "долж": 847,
      "вст": 848,
      "жизни": 849,
      "вся": 850,
      "жи": 851,
      "нач": 852,
      "час": 853,
      "##аясь": 854,
      "vous": 855,
      "уви": 856,
      "продол": 857,
      "##дь": 858,
      "##дер": 859,
      "##чу": 860,
      "##ено": 861,
      "##енныи": 862,
      "##st": 863,
      "послед": 864,
      "движ": 865,
      "слыш": 866,
      "двер": 867,
      "pa": 868,
      "стоя": 869,
      "le": 870,
      "уж": 871,
      "бла": 872,
      "меж": 873,
      "нико": 874,
      "##вшии": 875,
      "непри": 876,
      "бол": 877,
      "между": 878,
      "два": 879,
      "##шка": 880,
      "нее": 881,
      "вос": 882,
      "##чест": 883,
      "ти": 884,
      "##вл": 885,
      "дела": 886,
      "бра": 887,
      "полож": 888,
      "деи": 889,
      "мал": 890,
      "человека": 891,
      "##шла": 892,
      "##зя": 893,
      "##овои": 894,
      "которое": 895,
      "##ie": 896,
      "##ню": 897,
      "##вя": 898,
      "##са": 899,
      "##ник": 900,
      "наро": 901,
      "##om": 902,
      "##есте": 903,
      "види": 904,
      "##илось": 905,
      "##лов": 906,
      "которои": 907,
      "кутузов": 908,
      "##жд": 909,
      "##..": 910,
      "больше": 911,
      "над": 912,
      "дума": 913,
      "лица": 914,
      "сы": 915,
      "ум": 916,
      "##будь": 917,
      "которого": 918,
      "чувствов": 919,
      "la": 920,
      "##скои": 921,
      "этом": 922,
      "##енным": 923,
      "##ваясь": 924,
      "##ним": 925,
      "вам": 926,
      "пра": 927,
      "приказ": 928,
      "доб": 929,
      "##тор": 930,
      "вои": 931,
      "свое": 932,
      "##покои": 933,
      "нибудь": 934,
      "импер": 935,
      "огля": 936,
      "##лись": 937,
      ",[": 938,
      "русски": 939,
      "соверш": 940,
      "##дет": 941,
      "##вои": 942,
      "##пи": 943,
      "руку": 944,
      "##выи": 945,
      "особенно": 946,
      "##шу": 947,
      "##дать": 948,
      "##бои": 949,
      "свет": 950,
      "##тои": 951,
      "##час": 952,
      "##она": 953,
      "крас": 954,
      "см": 955,
      "##ге": 956,
      "##еся": 957,
      "##ска": 958,
      "##ие": 959,
      "##бе": 960,
      "##три": 961,
      "люди": 962,
      "импера": 963,
      "##еви": 964,
      "вм": 965,
      "гру": 966,
      "сла": 967,
      "радо": 968,
      "##аться": 969,
      "благо": 970,
      "бл": 971,
      "ma": 972,
      "##воз": 973,
      "дво": 974,
      "##me": 975,
      "разгово": 976,
      "через": 977,
      "сме": 978,
      "##ur": 979,
      "извест": 980,
      "que": 981,
      "##шли": 982,
      "##нова": 983,
      "##ности": 984,
      "пись": 985,
      "гля": 986,
      "дав": 987,
      "этои": 988,
      "казалось": 989,
      "наполеон": 990,
      "генерал": 991,
      "##енные": 992,
      "##ите": 993,
      "##ению": 994,
      "останов": 995,
      "графиня": 996,
      "##енных": 997,
      "потом": 998,
      "соб": 999
    }
  }
}